300
body.stage1.0.0.weight 216 3be9ba5b 3cb1d60f bda4e8a6 be37004a 3dac6002 3e175244 bcd91dba 3e238b92 3e5d6d0e 3d924338 bd5e4a56 be0834ae be3c1837 3dec22fe 3e441ebe bd475255 3e40056e 3e74732d 3e384acc 3d37e149 bd4b3572 be39ae61 bc9c01ff 3dac9d2f 3d7a9de2 3e2e52a4 3e805399 bcaebba7 bd8521f9 be1eba3e bd79631d 3e72c792 3e3431c4 bdae6784 3d9411fd 3db776c7 3dc1778e 3d3ebb1e 3b074440 3d4e78e2 3e9420aa 3e832dfd 3bea0563 3d8076a9 3dba32b9 3e45fafa 3e2338e3 3e64a0b8 3d72a6d7 3e1a5a52 3e2d5611 3dbab233 395485d6 3d716803 bbb41f6d 3bfe721c 3ccdc1cf 3d838198 3e222c1e 3dc10e65 3e07d48e 3e731118 3e26e9d9 3da8a591 bdccbad9 be0cea78 bbcad6e1 3e948474 3e8bf762 3d8d13ce 3ed3d24a 3ec50bfb bddcc225 bd2bdc99 bc63ac9e 3dd47604 3e69f244 3e76e821 3ea24d5a 3ee1c023 3ef2ef1b 3e94542d 3f0aab72 3f01de73 3ed5c74b 3f2c0bac 3f1f6291 3eab8973 3f0b298c 3f0a4f40 be01b690 bde65339 be0adcc7 be08fcbd be2649cb be4681bf bdbe4be5 bd159de0 bd70b2e7 be908755 bed13f60 bebf3158 be9bb6e2 bef251ef bef51a86 be588ac2 be9de63b bea9fba1 3bb6b9e6 bdd62748 bd6b16aa bdbb46df be16698d bc8cdafd be017079 be0e70ff bd1b37bc bcdad371 bdcb8c79 3d652aa9 be75e1b5 beb27d91 bda8c365 be18632d be52e343 bc12fead 3c946f39 bdaff187 3dc0b292 be693bef bec45b35 be119625 bdbfb61d be7528a2 bcc95f34 3d95717e bd5589a9 bc6bc30a 3c855625 3cdb6b56 3e34d4f8 3df77d76 bd3b3cd6 3d3d608c 3d978a15 bce27dfe bd84420f 3d1d3d03 3df669ea 3e852e87 3e3ae4b8 3de0af11 3e547a83 be2ea7de bd1738f7 be229e3b be16660d 3e30e9f1 3e32f36b 3dae4e95 3e928be1 3e55cfaa 3d955b9c bb997fd5 3da4970d 3d132305 bcafd329 3c9867e2 3df51de3 3d49a56c 3d871b01 bef6910e bf0a6eb2 bf09a85b bf029f4c bf0a0f0a bf12c70c bedef496 bf00b04a bf1069fa 3ec59ae0 3ef76505 3ee07322 3ee72a0a 3f1f33bd 3f122b5d 3eb33d3f 3efc5b58 3ee699ff 3ceb7f39 bab4f85f 3ce5d2ca 3cfa1611 bd0840b0 3d6e6bb0 3c890831 bda1dee7 3d7b94e0 3bc46488 bc8b059b 3cf7d645 3d701e11 bcebcba8 3dbbcc40 3d402cd6 bdc89e07 3d8b1ca3 bc77471a bd8488d4 bc8c3b93 3d4cf7c6 bcc5e19b 3dc59a26 3d23b7e2 bd9a3700 3dd570ab
body.stage1.0.1.weight 8 3ef914d7 3e079fba 3e88ff9c 3f7c4c17 3e718b3f 3da4b0df 3f0e3548 3d6abcbe
body.stage1.0.1.bias 8 3e62d80f beea2429 3efa8278 bf024620 3f15ac0a 3eb180d4 bf368807 bf1a7628
body.stage1.0.1.running_mean 8 becf9f4d c01e1a6f c00642c6 412da98f 4013c947 c03c6071 41db9425 bec576ec
body.stage1.0.1.running_var 8 461128b8 46d67f87 479dd800 4700ed0c 4738e713 4676b8de 46b81af9 44380a8e
body.stage1.0.1.num_batches_tracked 1 48275300
body.stage1.1.0.weight 72 3e7ebd92 3ea06cdd 3db6829b 3e0c98f8 3eca69bb 3d2cbcdc bdf2db45 be811a20 bdb3ee22 3a95e159 3ea8d530 3d6b85fe bde2ca71 bf4c9c0f be3af524 3d8168e7 3cbb2673 3d9ee86c be949903 3fda1ac3 3cffd7ed be161d95 be5d62c8 be8f2c56 3dbb1556 bdeaa7f0 3e26724c bbf6c513 be8db776 3d1c625b 3c0f60cd bf3c2528 bd3f0f12 3d1fac67 bcdb2b5b 3c982d03 3e252911 bfd7b0fc c007a61b be496e8b 3f2d2992 3f447ba5 bd4282cb 3f820011 3fb9bfca bd546acb bcd0c778 3d5938b1 3e2bd55f bf3fc7b2 bd77748d bd65d6ad 3db22f1f 3d9378eb bd0d8578 beaf60d4 bdb8fa9c 3d8ffe38 bf123be7 be2f986a 3cbad868 bd361f44 3df94e5d 3e5bfde0 3ed5c1f8 be19a00c bdb554e2 3d26ff35 be0771e0 bd4bfee2 bd080253 bda8401c
body.stage1.1.1.weight 8 3e722faf 3f0ae7e4 3ebf782c 3f9c940b 3ebfa1fd 3f019ffd 3f9e1d07 3edd692f
body.stage1.1.1.bias 8 3e8e19c0 bed7343b 3f2fe301 be235deb 3f01e355 be15bd5f 3e1335e9 bf02da24
body.stage1.1.1.running_mean 8 3e788e33 3ccb171c 3eeb150e bd81d68f 3c7cd6b6 be4821c0 3cc1b516 bc077662
body.stage1.1.1.running_var 8 3db58a7c 38651c43 3d8b6a4f 3e3b3705 3d86de4d 3b0999e2 3da591b6 36bd393c
body.stage1.1.1.num_batches_tracked 1 48275300
body.stage1.1.3.weight 128 3e0e37f7 3d6beb39 be411888 bc15aeb3 bf8da035 bd0ce484 bc5f2c81 bdec0fca 3eb04a68 bb1499ff 3ec58079 3cf5c457 bcb14093 bdb94f68 3d9d75ff 3e5aa621 beb9177b 3d0382e3 3ea29d7e 3c2d9bbe 3e3ffd8c 3e2e59f9 3ccae14f beee5cc2 3e0f31e6 3e5de716 bf1eef95 3cabba8d 3d07b98d 3df5ebf9 bca669f6 be860732 3ec0ab59 be26485f be7cbe15 3c8d0c1f be2ea53d be369327 bacfb144 bd732c3e 3d9f9d4b 3dfb8f20 bd9d9c10 bef2f0d0 3d532666 be2877aa 3f60be13 be4f203b 3eec5984 3da48b70 bebcf878 bb58621e be5e6527 be796210 bd6058ac be97e159 bc7769f1 bdabb9c7 3abd6863 3f836b50 3b23d95e bd40da4c 3e47ca4c 3dc7ad8c 3d6d3aef 3e80d34b bf222440 bd540a1c 3d223d86 3e096a13 3c0511fb becbdbbf bb87a063 3e36b17f bf1009b8 bcbe819a 3da42418 3ead8a43 3ccdcc54 bd1c08d9 3de8d7ee beb69abf 3f17ce01 bddcfa3a 3d0dd1f9 be4cf33c 3bc29e45 3dbb4157 bd058e66 bdb8629c 3d9e9f78 3f1fa6fe bcd8b1cf 3cf02ee2 beebfe33 bbc2c039 be14a245 bcd2e0af bd490b4e bf682f20 3d3cd768 bba15295 3f098560 3d7f26ef bec5f0c8 3d7cdd67 3eb3d524 bbfee40a 3e0ca6a8 3e68eefa bb03279d bd9e5cf1 bd3a0713 bd8e6a0c 3b38d0f6 3b5e24a6 3c956fc6 3cc66a24 bf93b100 bde8e6fa 3e3034bd bdf452d9 be730e55 3bc744b2 bf99fc02 bde2b163 3caf66a8 bcb4194f
body.stage1.1.4.weight 16 3ea8449e 3ec99318 3e1037f9 3e220fd3 3db9cd3e 3efdca82 3e2ec523 3ea30cdc 3e97a008 3f02bb55 3e53ccb7 3e9f6941 3e26f000 3d8b48a9 3ec21100 3f0b8e3a
body.stage1.1.4.bias 16 3eb5669c bf28d06c 3ebb1c2d 3ee71b82 3ef51a75 3dbfd9c2 3ecfd113 3eb285c2 3f0f6fb0 bf477b4f 3ed3c687 3e35bc38 3ee51109 3e9ce779 3e2b11c5 3de7787a
body.stage1.1.4.running_mean 16 bf2d9340 3eb9c9de 3e88c1bb beb2e924 be2ed226 3e677404 be8ce859 3e6958d8 bebe2c6e be99a7ba 3ed46370 bcfb0cbd bbf9c0f4 3e6f9981 bed27739 bf403a21
body.stage1.1.4.running_var 16 3e055af8 3d6c8517 3bd67ea8 3d781b36 3bffcd9f 3df24899 3c3dedf8 3d995139 3d9d2af5 3db45669 3dd7c288 3da177a4 3e0fb2dc 3b7e63fa 3dc6ad73 3e1bac89
body.stage1.1.4.num_batches_tracked 1 48275300
body.stage1.2.0.weight 144 bd393edf be14e086 3c437fbd be17bce6 bf0edac6 3e2ec69f bdb642c0 bedaac1a bc3c2625 be0916d3 3eabce08 bd827bd2 be0d844d 3d95f9c0 3e524981 3ddd397e be2bc7f8 3dfbb511 bdfb5bcd beae7664 be59ce75 3eb9c0d0 3f3cdb19 3eb6bad1 be5b14bf bebbceb3 bdf125e1 3d4649ce 3eeb45b5 bef63277 be95497d 3faeac50 bf7bc25f bed45389 3f769624 bf1a2dcb 3d6d8941 bdbf16dd 3e904341 3d12e8c0 3e388e0d 3ed6c53b bd9b5f64 bdbbc83a bf4909eb bdab70a5 be0143ab be0ed3df bec72de3 3dfceb9a 3f0cbd1d bedb4e76 3e6f5087 3f339f88 bd850e1f bf1f374b beb91ae4 bd0b894a 3eb9f358 3f0fab42 3d2c772e 3d963788 3d81c009 bc431e41 be12c2e6 be5bac0b be8979dd 3da4299c 3eed0be3 be7c72f5 3e6ef834 3f26ed70 bf383c93 3f1c9054 3ea39481 bf89cc24 3f160cd6 3ea8bd5a bec7fa9a 3e3e5780 bca0f5e3 3c1feb9d 3ef5f90b 3e9d9890 bcdeeba8 3defd81f 3deec4be be00210e becd30d7 be8a744e be85986a 3f03ea1c 3d097a07 3eb04fc0 be32289f bf041de9 3f148503 beeba023 bf05743d beb10827 3e639c74 3f0da7b8 be2a0381 3e1f67c7 3ead6244 bcef460b be262f6a be810691 bc2e1dfe 3f145592 3f628c3c bd8df977 bd932b18 3e2c4297 bb74e13a bf1f2491 bf463f66 3e4a8c5e 3dc8ebce be625bbd be9e8f05 beb994e6 3f11d55c 3d8a922e 3e826709 bea30ae0 3dc6febb be59e0e1 bee2d9ed be3dca9b 3d5ff51b 3eaf97dc bebfe02d 3e8d8457 3f5d0000 bd980e7a bf19c519 bdac9580 3d14427f bea1549b be24dd30 3d61b00f 3df707a9 bcb6baba
body.stage1.2.1.weight 16 3eb7bf19 3e629c09 3ece149e 3ec48252 3ed381c5 3e29dff0 3efd2e25 3e9acd76 3ede15c7 3e6abd30 3ea0d909 3e8597a8 3eaceb6d 3eaaf86e 3ea42192 3eccbd1d
body.stage1.2.1.bias 16 3ed2437f 3e9a892b 3f318d63 3f82e1fa 3ebf0ec5 3f080210 3d86cbe2 3ebb7c8b 3f12bad9 3d956b73 3f67730c 3e32e81a 3d4c21ee bb91f663 3e30eaf4 3e2b9b91
body.stage1.2.1.running_mean 16 bef17467 bcaaadf0 3cec967f 3ce29efd bd1a043a 3dc64b12 3c18ca36 3e4d5e84 bdbd2c2e bc664d11 be44b5c2 3d8509c1 3d054854 bbf12dd2 3daec0f0 be52f420
body.stage1.2.1.running_var 16 3d2e71c2 39b070d8 3c67efc0 3bb71056 3b9365fa 3cac1b09 3c5a0c0c 3ce227f8 3cfe8540 3a268086 3c6bd9f4 3c1e3d34 3bb7dbd9 3a890eee 3cd2fe6e 3d901ef7
body.stage1.2.1.num_batches_tracked 1 48275300
body.stage1.2.3.weight 512 bebfcdb5 3dd723fe be599f95 3e10bba8 be307443 3decd5c5 be74f133 3c93b845 beaaf066 3e029f72 be6c54c8 3dfae6d6 3c8ee3bb be1db6b3 3d963263 beade8e0 be100cf8 bd854102 3eac2677 3c060ea5 bea91ad4 be946a69 3e7eb4a9 bde9e7ea bdc37b9b 3afbdeee 3e1d536f 38b3f866 bdce2fe7 be11c2d0 bd95b79d 3d9e1701 bf043b08 bd977b7c beb896d6 3d0307f5 bdd51cea be64bbf7 3dc11e0a 3d9e018f 3d2f5233 3d98f815 bd5dfcb0 bde904d8 be2bdc2c bd84dfa4 3dd864a4 bd84a3b4 bc3fb4bd bd696296 3d0e432c 3c8eee14 3d113db7 3efcd5af 3cbaccc9 3f39bded 39f2e4bf ba33be01 3c94b6a2 3d2b20bf 3d629066 3cc92810 bf344369 3c433b0c be8cba19 be8cfacc be24c71c be8ae432 be4875da be03bd7b be00444e 3cc04ef3 3e203978 3e71cfc6 3e2bd952 bdaa404d be13e5f5 bd8dc1f0 3d994ee7 be97e457 bd55d962 3d00ce5f bcd9d11e 3f5f591e bc85ad8e bd95d003 3c89e21a bd49df1c 3f044c9c 3e2d7f59 3e8bd4f3 3ce69dea bdd4fa6b 3d5620e3 bd2627f0 ba94050d be67c619 3e6484f7 3e7a86eb ba9f9c25 3ec3a492 bccd7d2f 3ec07bb2 bd366d16 bd82b8dd 3eb1514a bd1a17e2 3dab8994 3d9c422e 3e785d68 bcd0735b be2c2ebb be6b6607 3d077878 bddf2afd be44a609 bda160e8 3db48af6 bda48160 bd36748f 3eae74ee 3d7bc830 3e0d4311 3d480663 3d8046c1 be18e6b7 3d5521c3 becc64b3 bcf799b8 bd85b969 bce30df1 bd180e73 bb7ae1e6 3f07ff0b 3c6286a0 bf0dea27 3cecbc87 3cc27181 bdc94724 bd98d034 be8f51c9 3cc477eb bf12b069 3bf885cc 3eb0b300 3df61108 3db40c44 bde56387 bd02b02d 3dc53eed 3e33325a bdcb8d9f 3cbc2b8e be5af384 3e620f24 3db1be83 bd593513 bcf3dc22 bc853163 3ef52807 bda53748 3d308844 3d9ab161 bd02c99c 3da0006e 3ebadad8 3d814162 be0481bc bc2da038 3e5d7064 3e159b18 be6cda4f 3e9db2f9 3d3aaf86 bc2bca39 bd494dc2 3c978e84 bd147909 3df92d69 3b2d5599 bdd45993 bdc08ca2 bf60f526 3b885a21 bcfe3f0c bb677bdd bd4fa6c2 bd1d4b0a 3d6b138c 3ef615ca 3d31e03b bcd5c3e6 3d981335 3d8b4370 bd75e025 bf2b16c4 bda63855 3d0eb54c 3b1bd767 bd58ce0a 3ec95518 3c2f93a6 3eb17368 3c36279b 3d27c380 bd958ddf bc8e4ac4 bcdade46 bd9ebd6f be3bbc3d 3c4be495 be222327 bf2c036a bd9c80df 3df662ec bd15f7fd 3d3d3a68 bba6adad 3e0de2c4 3d9f6847 bc400b5d 3dd67121 ba613fbc 3d338ee4 bda45cd1 be2c496c 3c1bcdba bc2ca3f0 3ca6ae65 be0be1a0 3c986aa4 bc2b63ca 3c59bd0d be65f738 3db8d078 3f0f9936 bf2e2280 3d2bbb3d be507dd1 3dd79cb4 be8fba32 3c65eec5 bbcd5a01 3ca95b50 bed24bb7 be132a68 3e361885 3d3788ba bcc4d1ce bd1eabb0 3e21a602 3d398e97 3a2fc3fc 3c9eac6a bb8f6f46 3eb6e061 3d2ed88a be73ba2c 3d87b080 3c48d1b2 3d624159 3e51067a 3d7417c7 bd05e8ba bca6b163 be6949bc bd816e72 bedc2e33 3efddc85 3d3537a1 be5ab279 bcf4ee4a 3e023ea7 3ec07fcf 3cd2be98 bd3f7c23 bbf58bd8 3e224cf7 3d9a3da4 3d8a5a97 bc4d67c1 be3f8544 bf809724 3dc92be8 3d8635a0 3c31d4bd 3d76753b 3cb2f97f bb6a0da4 bd970053 3cbb72c2 bbc7eedf 3cad2623 3ebb49c8 3c619fae bed0bb8f 3d046bf3 3e00e647 3e0f43d9 3eab15cf bd980773 3d1c1eb0 3ef2f23c 3d0e6ad7 3b2d28a4 bdd4ca77 bc83a692 beeb8f2c bc89c0b5 3d1f78e9 3cb6c430 3c26f83f bef57d44 3d37c91d beab4253 3d714639 3dd449ba 3ccb264b 3a99c4d6 bcc8a985 bec7f9f7 be4a6e74 be05537d beb1008d bc590ac0 bda42039 be1fcdbf bc0228aa 3edb0ee5 3df81297 3dde08b3 3cda23d1 3e16d17c 3d55696a bd42b930 bea8ed45 3d9c5073 3da53062 3de1bb90 3f8887ef 3daf3127 3dbdde8e 3d888101 39032eb7 3ea11754 3ca2538b bd34914d 3d264608 3df1bc31 bd018019 3bf196d6 bc80769a 3f338d36 bd7aaf6c bdc1fdc7 3d897c69 3dc43daa bd51bcaf bd6efeb6 bd5cbc9b bdb849f4 be9aaadf 3e88e531 3d3b9b0f 3dc7cb40 3c536b10 bd303b72 3ec3790c bd25317e 3e226f94 bd1f3e82 3e3af07d bd8cd795 3dd4f7d1 bd08f91c bbf1ab53 bf5fb326 bdf79af6 be7d0b5c 3d46d3d9 bd5d827c bd85a79a 3d06e0c2 bdb00d27 3d7a2477 be04fb1b bde5b4ca bd928892 bdd05f37 be8c1918 bd930e8c 3e73c319 3cb89098 bccc4f7a bdcb93c9 3ed34f73 bc7a3f4c bda10593 3ed61e0c 3c5ea342 3e83815c 3ebcf8cf 3e014114 3df3df1d 3e0c6b12 bbfe45f2 3db26879 bddc3407 beda3f97 bdb28e23 bda6535b 3df3e0ae 3d6a0055 3bd6b363 bb5216b6 3e6db121 bbabfc0d 3cda7331 bd53c720 bcb5782e bda7db05 be6f6eab bd017c9f 3f2bde2e bc4949c4 ba44612e bc6e2581 3c2e9fa8 3c7431be bc0db509 bef3b162 3d2e7ee5 bdb9865f 3da2cf10 bf200d47 bd83e69d 3ed86b61 3e02a962 bcc41bf0 bc52739a 3d8e8ed7 3e52aeff bd9767b8 ba982b05 bd6c9134 bdb13c51 bd9f71ca bec1ce90 3e6576f2 3e993504 3d574302 be4f0590 3b6173e4 bdf9d87a 3d27fa54 bcd475ec 3da2ce1f bdef3792 3f11582d 3d1bf6b8 3d1d30fc bd2ccdbe 3cb6ba35 3dc69f50 3d82e4b7 3dc035a9 3f744f47 3ce7ce2a be0a1360 3d9bafa7 bbd185d8 3d006690 3b82b5a8 bd2905b9 3ded0d3e bd015ae8 3d90598b 3e3bab99 3cda31bb 3cc3690b bc72618c bcf7e34c bf2d0d90 3cfed537 3ed0043b bdd99a62 3f04490c 38de5895 ba71a0e8 3da7735d 3d98cab0 3d20a1c9 3c8bafc1 3e885463 3ce2e421 3da3e1b3 3e636015 be0cd5a6 3dac6036 be88f0f4 3dba3cb7 bdbbe4fb bcb8fd28 bcbf7507 3d39c3f9 bd19877f bea1f55b 3d2de135 bb211490 be353b3b 3c6b37ba be832e8e
body.stage1.2.4.weight 32 3e96aca7 3e9e9229 3e4fe3a8 3e8ed5d9 3e751a8b 3ddace57 3e879c88 3e7e480d 3ea98da5 3dfcc65f 3dd08734 3ee103a9 3ea2aeac 3e3b4faa 3e7ac4d1 3e3572b1 3e7ca234 3e4f9ab0 3e753103 3e0518e1 3ed3fa6d 3d596599 3e89b957 3eba79e6 3d89d805 3e8cf6e7 3e3c8615 3e40a4bf 3e466673 3ed1096b 3ddab286 3e0dc8ea
body.stage1.2.4.bias 32 3e69e616 bdb80612 3ea50e0d 3e8c715d 3e9e8d0b 3e908723 3e11c829 3e69b399 3eaefd90 3ec22733 3e9cb3c2 3e200e55 3e72aefb 3e8a4070 3e3298f9 3ea1f4ab 3e5a0aa5 3ebff1df 3e270c94 3eab0465 bc9faa11 3e97ccaa 3dc3200e 3e80b4fc bf0a2f9f 3e4b7c06 3ef39c5f 3e9613c2 3e91e6ac 3d029bcd 3e9ea9d8 3e9108f6
body.stage1.2.4.running_mean 32 bf212fbc bd692efa bf254ead 3ef353da bf15662b 3faf068d 3e912d0d be083657 be666d6e 3ef6416c 3e9fc135 be363ac4 be31618d bebe6a5e bd7e1ec2 bda43251 bcfdcc21 bf234734 3eb3d4a8 bf87b236 beebeaec 3fbf3acf 3f0a0bad bf0f3e72 be540d19 3e5b0e5b bd7f82a8 bed625f1 3f098b7f 3f62e8b4 be141df2 bf031e73
body.stage1.2.4.running_var 32 3d876a13 3d563c21 3d83c73b 3d41a773 3d73dfea 3df12b74 3d05db40 3d4a59cb 3e1384bf 3d4e8c46 3cfa8c85 3dd490d5 3dd4d6d5 3d89b1ea 3d28ab43 3d4c35ce 3d47136c 3e24d811 3ceeedac 3d563981 3dae2e4c 3e06a4fc 3d9a4ebe 3e080051 3dbf163c 3d797ecf 3d1483b1 3de6ace7 3d18f98b 3dfd8b85 3e123250 3cf7f56b
body.stage1.2.4.num_batches_tracked 1 48275300
body.stage1.3.0.weight 288 bd5fdbd7 be6d2d55 3c60eaeb bea02b9c be266046 3ed43956 3bb06018 3f1feeda 3b9b75ca bb7826ba be74ac05 bd770fb9 bd5b8f53 beb3508c 3d331a46 3cb2698b bd2991b9 bcc9d30f bd6372fa bed8bcac bda88104 3e9496df 3f1d85bc 3e279014 bd52939d be8af2e5 bdfc94dd 3ed1f9be 3ee1503a bece701f 3e895619 3f1d7fca be1b1607 bee9653c be9a7272 bd0e0405 3ea72d8c bebb0846 bda0252d bd7a8709 3f21553e bf2fde60 3daffcd2 3e851d75 be212e9b bd043c32 3cb2bc8f bd0cff33 3c4ed031 3f386b21 bede65e0 3c729022 3dbea991 bc48f34e 3ddaae73 3d6c06f1 3deaf8b9 bcede196 bf0643a0 bdafdbed 3d312a13 bec6c167 3cb5bf33 3dbb338a 3e042f22 3d0188c7 be26d2d2 3eeabd0b 3e15b0d1 3bd193d2 bf2643a9 be2a5d49 be6d0569 bef74d81 3e9912f2 bee4b311 bf134e12 3e813073 3e5d9fe7 3ecedda5 3e0630fa be0ca136 be769ddc bd68918b bed5acd7 bed08268 3f2625df 3c298fee 3eab73bf bc31afd2 3e34f4ea be865754 3d85ea69 3ed9f337 bf335df0 3e771b67 3e0754f4 be61d06d 3c94d02b 3d818044 3ac4929d 3abdc07c bdc01bb8 3f2f5ccf bf0c1041 bd83647c bd0aa8d6 3dcafd1e bd3e7d36 3c751f5f 3d746b7b bf437f86 3e2900a6 3e0a9032 bdcb9dad 3cb1860d 3b7fc3c1 3f0a0ced bef5abed 3c097d88 bec39dc8 3ebbf693 3e23ecd8 bd940043 3badbeec 3d05c0b3 be5c66d8 becd4116 bdf9b53f 3e3ddb12 3f1b04e8 be29a0c7 3e2809dc 3f010659 be4d6de1 3e2e6fa6 3f0eb5f5 3db90147 be367986 bee760ac be68707f bd8c1572 3e01e170 bd6fb290 3dd1dea3 becb8883 be956a3e 3e50b823 3eeda037 bec03214 bd8f3952 3ee0ab31 3dd1a533 3ccf3380 bdabbdfc bd573c19 3ef42de5 3f0d73ab bd22b864 3b8745f4 bd30dee3 bd19d835 3e833a7c 3edf8079 bca5064a 3e9b9bdc 3e0ab726 be69bbe5 beda829c bee6774b bd8aa7a6 3986b9a0 3d7882d4 3e4a4603 3d182749 be13e581 bf45f444 3ad0da56 3d3eac63 bd5210fe 3dc930fc be6c0aa9 3d911b07 3cc1466d bf017b5b be278e52 3a9fa1c1 bb643b77 be62e5cf 3c85d8f9 3e07ea47 3c89d1ee bd929f4a bf4fc57d bdd434fe 3c8b5d0b bdcc44a8 3d6dff08 bcbba844 3ea147cc 3dbca425 3a9f30f6 3ef521d0 3c7f2b9a bd4e9a0c bbb02d11 3b83221b bbae25a7 3c5b1a5a be07e74a 3d3b82e0 3f411482 bf3d501a bcbf51a4 3d05fe7a bd343ba5 be20a2c0 bbacbb40 3e177e92 be9cd514 be824363 bda089c1 bcace82a 3d7f27b6 bdb6c5d2 be48b9e4 beb348b5 bec349ea 3dd2f7b4 3f1611c5 be3043fa 3e06aa65 3e999cd5 bd2f37f5 be7e24f0 be5cc3ce 3e7818f3 bd9fc7d2 beb579f7 bd47dbb6 3e3f14bf 3a9891f8 3da1c5bb 3ccdf269 bf36c065 3d849b07 bdee0db3 3d1c482a bc989872 3cbbfe15 3cfedb8a 3d0b655a bc845a09 3da64d13 bc9b6526 be4fc97f 3f529e3b bf2d86fd 3c825c78 3d115d83 bb89a6b7 3d4fbc73 be772597 3c543370 3d8dc104 bf28e898 bd0302b5 3cb378ec 3b0c06ea 3d185e96 3d8cfe29 3e9c1f69 3dbcd4d2 be02a88f 3f21ff14 bdb1a63a 3b0fc81a 3c5828ce 38efc29b bd6d939b bec26fdd 3e52e408 3d4309dd 3f20f6dd bec328cd 3c3cd37d bde068b6 bc5e19c2
body.stage1.3.1.weight 32 3ea47152 3e3f631f 3ed9fb8d 3e27d373 3eca26e0 3f109c17 3ec1e22a 3eb8c7ec 3e6dd68c 3ec2feef 3e925ef4 3eeaa7db 3f0629c2 3ead7027 3e8c394e 3ee00891 3e7cc9e4 3e853eb4 3e6377c8 3ee7e3cb 3e96a18a 3f0614e1 3e9eea1d 3f1d669e 3ef53c4c 3ec87fc8 3e5322d7 3eaedd18 3f0b6851 3e9d9064 3e9d6430 3ec79f75
body.stage1.3.1.bias 32 3ed598f2 3f0d49a5 3f1aae1e 3ec922a9 3e261d15 3d9b58c6 3e7067ad 3ed409b5 3f4f4d4c 3e2362ee bc9cede4 3cd9e7a9 3e7b8953 3f740868 3e3a89fa 3ecdf534 bc421448 3f0269b4 bc6c245d bb5d13bb 3f0b64b8 bd724ef8 3dc0450d 3e980345 bd23fd3f 3e1b3af3 3e1f564a 3f1532c3 3c8443ba 3f71a7d7 3e9f1d8a bcff329b
body.stage1.3.1.running_mean 32 3da40609 bd0bbc1b 3cba7735 3df27c38 bc608519 3dcd60d1 bde39028 bcedf709 be299bda bdd70e6a bd22b9bf 3cd73815 be0ac492 3d4a6576 3d9232b8 bc807904 3d39ce91 3e9a519a bc2a4ba2 be58e6fe bdc3e89c be806d40 3df6e534 bcf2e6da 3d1a47ae bb853d5d be562832 be444d26 3c42854d bda422d7 3e8f1d83 bc50ba4e
body.stage1.3.1.running_var 32 3cf6c5ab 3bd70ac5 3ce8e5b3 3ca99ee8 3d0b4a08 3c22512c 3cfb0bde 3caa26c1 3cdcd12d 3c57f710 3b0a7584 3d096e07 3d427396 3c3b66cf 3c9d184a 3cee359d 3c334c9d 3cc72945 3c2f5ee3 3bb7a72c 3d3fa02b 3ae48185 3cad921e 3d71636f 37dd577c 3d0c2d1d 3bf54244 3c30bc76 3cd4a731 3d46ca6e 3b855a93 3bef05c6
body.stage1.3.1.num_batches_tracked 1 48275300
body.stage1.3.3.weight 1024 be0df285 3dc2dac4 3db3a2e5 3f3be076 3c991fcf 3afea561 bd417d74 bd68a4eb 3e14aeaa be0461a0 3de6a393 bd63506c bddc6532 bc95e8c5 3e86cb85 3b205193 3d0a0590 beb31a99 3da80cb8 3e21c7f0 3cd23b01 3e07498d 3d64e785 3d8787e5 bd95ac19 bdaf3bff bd681228 3de4f8f4 3d1a1bb9 bd45be55 3daa4c54 3d61c55d 3e7307ef bdf061ff 3d81ae05 3d24aff9 3e963446 3d0eb99f 3c4ed0d8 bedd1a4a 3e6e2c2c 3dca6134 3e40e927 bcacbec1 be0c8f99 3bdc9408 3e0a74d2 3e0363cb be9d8efc be317e4c bdac93e9 bd83531c bd54bce0 be1d39ef bcdd058f bdc2414c 3e2cc39e becc6347 3bf75132 3d9e8a85 3c819af5 3dc80591 3cf7ac84 be2fac22 bc5d62ba 3cc0f350 bbac71cf bd977540 bd019e16 bd39ec78 3df02432 be152eed 3d6c92de be26c4e0 bc1da539 bdaf91f2 3d5fb69c be025d6c 3d2f6e5d bee45a3c 3b7acc37 3c85bb8d bd45baba bccf47ef 3e86f784 ba64d5dd bdb6a2ea bcaed685 bd3de05e 3a131972 bd07ff10 bf27f565 bcd8d9a1 be7fae21 3f3471cf 3bd38d2d bdb4cced be9804be 3e220597 bd3bad53 bddad14e be09b8c3 be7abc03 3d028ba6 3cc6d95e 3d81a37f bd509dbc bc2797a9 3d197997 ba6564d3 bd2af8fd 3da0b52c bd8eaed8 3e950a08 3c8e3be6 bcc03df4 3dfad168 bd93fae4 3e2b5804 bd219aad bd14ff85 bd08fb38 3d0e3d72 be2bb1cb bcea142f becfa287 3e4d328e 3d2cde80 bd33b2ed bea42191 3db0bb30 bd04fc20 bd6b7923 be02e2d1 be294937 bc905b81 bbfc39bb 3cd8db42 bd2e08d3 bc94b157 bd8b74de 3d849840 3b0c2162 3e135635 3d225bbb bd7b33cb 3d3cb0aa bdde89c2 bca2ec01 bdaf0ea5 3e1d86b0 be00a991 3e0a83af 3dcecb8b 3cb0ee08 bd90311f bdca9f9d bee37f47 3e8b74d1 3dd9da42 bdf88c36 bd844b31 3d9d5743 3cbc989e bcb9a134 be81ba7f bd66a76c 3d2d828f 3da823de be7f1f9d be20f222 3d5c5c62 beddc019 3cb18381 3d0b63b8 3d94bfd1 bd0e3e4d bd3eb16f bd1a8ade be272035 be52d039 bef37c69 bc2fe3cf beb94cf9 bdcc4ff5 bdd1fc3b bc6125c9 bca18aac bd88f375 bd953306 3cf84ecf bccd0647 3dc6be2c 3e1208a3 beb05580 bdaf5aee beb92cac be994a4b bc5aa088 3ee83112 3d60d433 bf09acbb 3d738fb8 3dc78e7b 3e4b00ac bf0ff46e 3e03a0d9 bcb98dda 3cd7ac4e be08ced7 bdcea7ca bdb54911 be403eb7 bdd15b57 3d38514c 3d671354 bdec9e6e 3e2e9953 3b85ad1f be48b8c4 bdf0e216 3da621ba bea2a290 3eca5b60 3e21b12c bcd8ce15 bca684b1 3d8a34f0 3cbf764f 3d420ed2 3d96f7d0 be80d88e bea2c520 bd46087c bb884c3c 3bc88b44 3d9642a0 bcb189b2 bef4297b bd816da1 3edcb533 be80af5d 3e137a2a bb5526a9 3d2756a2 bc8e2ea8 bb58741b 3cd20dee be26e2f5 bebedd6e bd9b7045 3d373ad6 3d4653cb bd713e70 3da7937c 3d24666f be067d85 3db0b368 3d58574f 3f1ed99a be5f632f bd15d366 3de4ff40 3cc8181b 3e5de73c 3da2c1db 3df1eb7c bcbfec8d bc1a0a69 3ba1711b 3e4efbd1 3d3c93b0 3e1bcb7c 3ebfd28f bc868061 3c9fb453 bd86709b 3c1c8bde 3c932657 bd46a3c8 3c3ad800 bd12dbe4 bee6e875 3ca03967 3d03a537 bd85398c baa814fa bcd67854 bd2ec00f 3cb22751 bdbb2ed4 3e14d428 be164963 3d30170c 3d7d0729 3e81d910 be5e8680 3e4f39ed baf519b9 3c52717e 3d2715ff bb330225 bef21ffb 3caf28af 3e9c4f73 3bfdd90d 3e01fea0 3c20d9db 3e11865c 3d33d55b bdac1877 bcd7b470 bd202359 3e846884 bc091c6b bb9552ee 3cfbd601 3d145c31 bb91e2b9 bd35b640 be39137d 3ed7a8f1 bcedc935 3b1da32e bde8e755 3d134872 3e9978d4 3d778809 3e287703 bd33fb5d 3e49f15b 3c9951e5 3d40993c bd05b90d 3dd7177e bd277d85 ba12059c 3f54f755 bdd9c1f7 3dab1045 3ea4206b 3dcaa402 bee3055d 3d0a656f be85eb02 be307b66 3c258951 bcf94afb 3e001f82 3e7a9f4d be13cb09 3cab8157 3e0349af 3cb9137a 3d17e955 bc11fac3 bdead58c bdaa167c be6928ed be398f6a bd42b9e8 3d4aec25 bc63a51d 3db5ea09 3e1a2bbf 3da5babe bc3a7293 3dd397f5 3d18cb8e 3ead8def 3d1d2a89 3ca9e933 be1641c2 3d14c28b bf3ab018 bd2dd066 bd81cbf3 3f077831 bca413d2 3dcf9a37 3cdb70d0 3d42f8c6 3cd6af1f 3e26313f bc389736 be2a74e9 3d8781b1 bdda2924 3ed40bc8 3ecdcdb2 be67bcd7 3e1b7ae9 3cb05bec bbb5b77c 3edc9ecf 3c941d09 bee27244 bc8f0577 bdbeb856 3e1cfcf4 3cd41278 be14d9b0 be17a987 3dc964bb 3ef92f87 3e71d328 be53deb7 3e1d0c98 bd75b910 bdb5a603 bcc5e7ce be330ff5 3e8b1888 3d478d8b bd67c7e8 bdce7e69 bea62e49 3d08b6ec bec3a2ed bdbf7192 3d175857 3c1f178a bd25433b 3ee404c8 3da473ce 3e843379 bd029f03 bc23f4d5 be47bd8f bd2a6e88 3e0d9ac8 3eb00b1a bd74a620 bdf10c95 bdb78d20 bda78161 3e098e82 be1e14a1 bc9bfb05 be4ffa71 bd72a83b 3e1a4d2f ba655d8c be96760b 3cc58d29 3e1b74ac be866005 bd2fcc5f be07fca1 3de3789d 3e173614 3be39e46 3ebebd3e bdd96171 3d00d5fc bb3a81ca 3d96b225 3e4ce63f bddef8fb be43fc2e be1dc39a 3f098516 3c0f3045 bd7ace0d 3dd85115 bd38863c bd96c49d 3d081946 be89f82d be2835b1 bd7ac8d5 bea326a4 3df9c9bd be965219 3caec93b 3eb0551c be6529cb 3e5fc7ed 3c77a742 3f0de703 3d3b524f bc75c5d2 3f6178a5 3cfe32fc bdbb8ca5 3d7002a2 bcd0ef4c bda6bfc8 3d5a57a1 be784301 bc107911 3b3639be 3d0b44a9 bd2056db bd88631e 3f182ab7 be1db568 3c251559 bbe013b4 bb2a3b9d bd9a4641 3c9b266a be118ba4 3e1b3666 3c8539dd be051693 bcfae416 3e5d0d72 3daf279d 3e8b458c bd3f85d4 3d355f2e bdf00f3e bde7ea94 bef8994c bda49b67 bd74da40 bd8d8064 bd4e8329 bc51feee 3c9ee271 bd1d6a1b 3c984341 bcf158ea 3d3b770a bd1a058b bc3b53f3 3efa04c8 bddf8040 bd98616e bceafb52 bdc08a83 3df1fc13 bde90679 bea954f4 bdbf3f21 be059b34 3dd36f55 bc0ee5a0 3e67f236 bceace6e bf45eee5 be7a0ff8 3b380a4d bda07172 3d13bc36 3d532cd6 bb94c49f be2e40da 3c3959fc be0d448a 3d9433be bcf9c38a 3e2efdae be265b25 3e86ab8b bdf8277c bf219839 bd8d8752 be12fb58 bcaa008e 3d20c5cc bb942ca0 3eaf2be1 bc0a4270 bde2d381 bc752e5b be3cc080 bd9eb957 bc8eaaa5 3c9a4372 3edcac40 bedc4e3d 3dc2fd94 3e8fab53 bc946fc2 befbc83b 3c8e5fe9 bebcb16c bb5481b9 be00fea5 bf075a1a bdfd2477 be342c01 3caf4ba8 3ec6d5df 3cf733b7 3e530806 3d4f6e9b 3f137231 bcea198d 3dee0adc be4a6d61 be0c4aa5 3d4a645d bba9cc69 3ebf2da8 bd3634b4 3dac3d3b 3da9ab98 be23b11c beaf4694 3d544c36 be8ba228 3e576a64 3de5cf32 be9da349 3d0659ce bcf50268 3de00647 3d7e09e4 bc8ec09a be394576 bd0ff94b 3e44e6e3 bd76ed35 3ce8ea63 bbbc416f 3c437dfe bc2b8925 3e916034 bc94e7bb 3d6cbc9e 3cfd932a bda51741 3e809e8f bd1831f4 3db9abf8 3e01e12f 3e0a053b 3d96b8ea 3e08dc6f bd905d20 bce079b6 bd9bc554 3ca03fca 3d103917 3e5c455b be1d7491 be0b2201 bc91290b 3ce0b477 bd04b53d bbf48210 bb66eb1f be0b17fc bd489db3 3d2533cb 3dae9c95 bd583e01 3c06abe5 3f842127 bc4a1732 3e332c3b bc17e827 bc8c3b01 bd5a9265 bd257946 3d4f4215 be3d7f74 3cca4cd1 3c326b95 bdec66fc bd318ec7 3da3c294 be05da46 bd301851 bc273e61 3ce468cc 3e4c7fc5 bc75bee7 3d6b8d65 bc63d099 bd7f5360 3d9311fc bedf232e bd080feb 3bbf4b52 be395e59 bd67d571 3f1486a1 bc4eba80 bc210431 bb06321a bb3f42ad 3b94773f 3ef03c6a 3c4218f6 bdfe4866 bd30a7b3 3ea7b684 3d27a652 bc99a082 3d0b62a2 3d7e618e 3d5b2e9b bf1f768c 3cf0c0d7 3e8e975f bb984bd4 3d0fac97 be31cbf4 3d86ad84 3d12f442 3f22a047 bc2ab5eb bbd4da7a 3d359a5d be9e506a 3be54212 bc116461 3e8ba6e1 bd924517 beb7f2ef bcd5f43e 3cc92c14 be8dee75 bd7bf246 bd906963 be1fc422 be5d5438 bdb426a1 3c9eb6b6 be9af106 bbe2a2d6 be924333 bd04a63d beaf4619 bc8f2f50 3d9d0151 bd951967 3dcdec1c 3ec8dff9 3d9d0eb9 3d80baac be243b3a be65025d 3db618f6 3d1e3655 bd74d6d7 be2884fe bdce660a 3e47ffad 3ddfe1a4 3e16559d 3d33d2b3 bcd2f427 bd3f721b bde80e2e 3b1556fd 3da98a49 3e3109ed ba72ae8d 3e4bc776 bc3bf960 be066235 3d6fd9de be312df6 3df78198 be23aca8 bd56b5fc 3dea6157 3d434d61 bd42a3a0 bd0a6724 3d7e65a3 be324fff 3d3a48ef 3e363e2d bc544292 bd41195c bb817e62 3d691d94 3d056cba bd96db9d bc4ff5ca 3ef1612a be0a5e84 3ccbec00 3cf24ea3 3c24346f bcea440c 3d72c7d8 bcc20722 bdd16dbe bf1c152d be830c2a bc1d201b bd8c7b4f bd06816b bd959f73 3b156889 beceb29d bd86ad3c bf35ff32 bd3e3de9 bcb8bd32 3dc71a2d bcc77737 bcefb58e bd3a8bd5 3cebc694 bd667c26 3e576cec bcf6275d bdc706f6 3c3b41af bc775649 bf2a9b1c be1d3640 bd837121 bd4202d5 3c464122 3db03bcb 3e1b1f18 bb6623d4 3cd2396b bd01bd9d 3eb5ff03 bbd1ac42 3d9f70d3 bb8c6fc1 bce7c347 bc73c7a5 3f05a362 bd0ff46b 3dd6804a 3dbab2e0 bd72187f 3d96a99c 3d135993 bd32c6aa bd9fae56 3dc8cf24 3aa77208 bc1370c3 3cb1a654 3bb2cdf0 3d6591fd 3cdaed8c bc0d703a bd322375 bdb32170 bcf2e539 3ea816db bc70bce2 3d285b0b 3d7265f9 bdc8e215 3c2b3120 bacfac88 bee9e14c be012512 3e075f4b bd3cc1d9 bf82829c be097d1d bdb15471 3c3b6b29 bd6dbdc8 bd5470ff 3d6360fa bd816cda 3d7a5006 bea04f5b bde39522 bd226fd1 be519f3b bdf1d3be bd008c34 3d79f5e3 3e84f59a 3efe3981 3cc35953 3e270e3a bd75537b 3b9afa9a bc71a5dc 3eaa9185 3dc921ab be9f64f9 be4c3ee9 be8e1bab 3bab25f5 3c2781ee bc9c5ee7 be06eacf bc1d62d8 bd80ebe6 3d1efdb1 39739716 bd6fcdf1 bcba77ec 3d841b0f bd63528c bcf12f77 be266c12 bc19ecbc 3dadd71e bd66ab5b be62b972 be8009a7 3d145789 be1a846a 3d22b2c4 be16446f bdc43650 bd956ac1 3f13300d 3cd5a404 bcf9f2be bcfbf0ee bd3d0dc5 3d135b6f bdc6f468 3e193a9d bcf98ac1 3dadce15 bd30fe5b 3ef8fcde bc0e337e bd059b8a bda7cd78 3da72317 3d125bf9 3e61dd20 bd8756cc be351ac2 be7c41ab 3de83e4a be20a484 bdae1106 be8414d0 be8dc5d1 3e69b4b2 3dc1595f 3d4c915a 3cff995a bd97dba7 bd6e1e2c 3c9eca3d 3cf2ad21 3e08a29a 3c0a4e50 bd7cdcff 3e1d1a20 3d9b5fd8 be18e36f 3deca998 be7f0f1e 3e26211b be4e0275 3d020434 3c07c5f7 bd255c37 3dbef6b4 be273527 3e055a11 bd9badac bd986239 3db77c18 bea93df2 3dd609d4 be10149e 3e231d58 3c4575e1 be8ca2e5 bd145b7a 3df97637 3e4f1c61 bd338852 3a5d3b94 3d17065f 3cf30710 3c3970e1 3e09457c 3ca51209 3f35ae19 bd7e2af8 bc8bbe11 be5498d6 bcdeb6b0 3f0d1fa0 bd2add54 be57a9f6 bd177a07 be967ace be109b92 bdc00e05 be9483f5 3d4a5b30 3d74efac bd9fe0c9 be71ece6 3e0c5de4 bd345d13 be44f3da bf672b76 bd22b2d1 bb9063e8 3d76678f 3da0c243 bdede935 bc9744ed 3ea0079a bc525054 3e1a0ef4 3e137301 bd97e747 3cd60893 3d8d8777 befdc2c6 3e0583b9 bee89610 3e1d8d41 be3f9fcb be5f7ffc bbde10f3 bd8f0233 3d8d662d bf3284ab bd20f144 3de1a642 bd8c9b58
body.stage1.3.4.weight 32 3e6c39cf 3ee251c2 3ecd8c0c 3e00c2ed 3e817490 3e9539cd 3f0bfa93 3ebf933f 3e8234ff 3ea115e3 3e2982ab 3ea45472 3eba6d8d 3ecbfdce 3efee1db 3ee58195 3edc2579 3ec4911d 3f0ddb20 3de790b5 3f0a709d 3ebd9803 3f0ab8f9 3d4c7dc9 3e75aee3 3ee3f9cc 3eef3cfc 3eb360e5 3ec28e3c 3dbf9f87 3e671026 3ebca62e
body.stage1.3.4.bias 32 3e4fb081 3d856dc9 bcf5ac36 3e2a0e86 3e362392 3df027f8 bdb9d6d2 3d0fbcbb 3e871203 3d8761a1 3f01d68f 3e7761e1 3e45cbaa bdab94d0 bd6af844 3c920c3d bd33a8eb bd282d9a bdc42991 3e84e132 3cc3484d 3d1afcc5 bdc7f9af 3e8129bd 3ec7e21d 3b5ec84f bdd5fdc2 bdefe10d bc8ddde2 3ebdef3b 3ebce9ed 3e077863
body.stage1.3.4.running_mean 32 3ea3bae0 3ddf8469 bf26e9c2 bebfed79 bf13ec09 bf1d2725 bf5853ac bf119e6f 3f081fc1 3d854e50 3f86fb45 3e8913e1 3e31a7c5 be41e75f 3f41a9fe 3f8ab643 bf87620e bebf0565 3d3e1a08 3f195017 3ecfd5f0 3e3f66ad bdc909b4 3e7ef664 be1718e2 be6baead beca05cf 3e26cfae 3ec87222 3dd9bccc bdacac3f be68e0d9
body.stage1.3.4.running_var 32 3d4392be 3e0f4203 3de11bbc 3d0193b3 3d18552b 3ddafcaf 3e786689 3d9916d9 3d5bfd9e 3d85c327 3e0c0a91 3dbfd349 3dc8ac64 3e0c2126 3e474b1f 3e41b70f 3e0833d3 3de633d6 3e751163 3d33a1f9 3dcae040 3dd37372 3e5da937 3d4c45ed 3dd0d151 3d51a046 3e8a9096 3d949d6e 3e050799 3db288fe 3d8faba9 3e9431e9
body.stage1.3.4.num_batches_tracked 1 48275300
body.stage1.4.0.weight 288 3d6eb865 3dc31b32 3d84bd67 3e2aa149 3e6e7507 3e404224 3dc27244 3e1fffa3 3da3d4a1 bd5a305e be0fefb9 bdfb2cca bdf088e7 be6e7b3d be3738f5 bdd55650 be4d16dd be06190b 3cf1bffc 3df44f63 3dc303a1 3e3c6b8c 3ec54830 3e8ffa72 3e363cda 3e9cbfeb 3e4a5d93 bc7acdc5 be10a704 be510130 3e286103 3cb5e771 bea01b56 3e89e333 3e8f804d bdbe0de9 be12de08 bd67afb8 3e2b048e bea56161 bda04c87 3e91d2bc be815bd1 3c8e2ade 3e7b8021 bdb615c6 bdf172de bda8a53a bdeb193b be9b304d be612bb8 bdd08b7b be59b133 be5f5c78 3e03bebd 3e5acfb5 3e1160b4 3e42a7f5 3ebb8f35 3e8d0ea6 3dcb17d1 3e7fffae 3e52287a bcb2929b be614910 be3bd6e0 bdeb6867 be6e7dfa be239ff0 bdf93c37 be225c1c bd8f039d bddb6dcb bdfed346 bde932fe bdca2f5e be3d60dc be292d19 bdd7bd91 be2b9af6 be185d65 bdbbaf05 be23e015 be25494d bdeb41bd bdfcf503 be0c0bdc bdfbca29 be28bff2 bd56cb3f bdd56e82 be42e08a bdc9de6f be285e9a bebbb9a2 be708095 be237302 be7d1d97 be3d6cd8 3dd8e40c 3e4080e1 3e2d5fe5 3e21b7f6 3ea392a5 3e88a944 3da5acbf 3e713957 3e459d0a 3da39311 3e3968d3 3dbe8ddc 3e3f3867 3ec05fd3 3e3dee3b 3e113042 3e766378 3e05763d 3d932419 3df336d1 3e0867a2 3e0ea98f 3ea42d09 3e854fbd 3da3b05d 3e1b130d 3e0f8561 3e0ad265 3e4a12d3 3dafeb40 3e7ddc22 3ec8d256 3e730b35 3e19ad3e 3e88a4f2 3e46819e 3d965e01 3e3018e7 3e1d8af2 3e3eb2f2 3ee80780 3ea989ea 3ddc5d78 3e7ed1b4 3e131ac9 3dbc6e48 3e4ba2cc 3e1561b8 3e6d086f 3ed36c23 3e8d26bb 3e00c96e 3e570093 3e059b38 bdd7a34f be3bc6ad bdcaaad5 be2e0525 be9fe645 be43d5f5 bdede312 be5c937a be01443d 3e05aaf8 3e69cf91 3e117a0a 3e7a08cd 3ed0422c 3e87eca0 3e39909c 3e835e82 3e1a2127 bd8cb831 be30cefd 3e009d07 bd9c5157 be87987e 3ea620f6 bda45f2a be1957ad 3e0db82d bcd115d6 bdb9311a bd3b5bba bdef52bd be88d55d be143950 be1aa044 be88d889 bdea88b4 3e11d688 3e2fc925 3dde0dae 3e507129 3e8d99b5 3e347717 3e01f481 3e242881 3de5b5fb 3dcd5454 3e4aa1aa 3e0aa09d 3e75c69f 3eb9cfdb 3e4fd80b 3e3e93f7 3e7ed675 3db9574a bcabaa8f 3c45e343 3b7e45cb be2c2e2d bea82bd1 be5cbe7b 3e1c9000 3e8b7b3b 3e2328a4 bdcf98bd be1dc238 bdcc99e4 be31aced bea2579d be0c5148 be2f3102 be6eefa6 bd7fadbb bda6c66b bd846820 bc8fe542 bd854701 bec2d029 be17f7b7 3c9f5990 be040535 bdec62e9 bdb6666e be4ac0b1 bdfd2f31 be21daeb beb2c3a9 be5d85e7 be0733e5 be8cba09 be3644e4 bd8d5536 bdda37e0 bdd0d1e3 be016cf4 be54cf10 be3146c8 bd8dd587 be4d2079 be40780b 3dc3cd39 3e5ce410 3e1aa2f7 3dee331e 3ea662e3 3e5a4289 3ddd1f1e 3e4f445e 3e1aa70a 3de7ddc4 3ea4a13e 3e2777a1 3d3b8c53 3dcaf43e 3d07be8d be78c618 bec9fd67 be99d35a 3c7809ff 3d96d19b 3db76dd2 3e13e0f2 3eb55a72 3e8145df 3de8feb9 3e7cca74 3e1f518b 3de0b308 3e475ade 3e27b934 3e339de7 3ea2133c 3e723ae3 3e0275bc 3e5c51c8 3e207f83
body.stage1.4.1.weight 32 3e4e075f 3e9ae99f 3e95a297 3e92411e 3e8d7c36 3e90cafe 3eb3c4ea 3e9a73aa 3eae55c4 3e8c070c 3ee52c53 3e9ba22e 3eae93b5 3eb10273 3eb25b9a 3ead04d0 3e9d378f 3e686850 3eae5258 3e96bd08 3f8376bf 3ebe1709 3eb239c7 3ead99b9 3ebc740f 3f149245 3e73788c 3e89b3fe 3eac64cd 3eb7684a 3ec21213 3eb9474f
body.stage1.4.1.bias 32 3e6d961e 3e8b108b 3ea42ef7 3e8771fc 3e0ccb6c 3f576bc2 3eea8f0e 3f0cd8d2 3e5321c4 3e8a27e4 3f4f399a 3f0d3d9c 3eb73e0d 3e8880d1 3edd97cf 3ecf0a57 3ec2f715 3f3e7440 3ed9085f 3eea8c54 bef2aa2b 3e8d4289 3f03c125 3dc478f1 3f38dd60 be24c3fe 3f0bfb16 3f0d2fb6 3ec2c71f 3d750189 3f1a2909 3f58a6b4
body.stage1.4.1.running_mean 32 3e7cc135 be6f5cbf 3e322291 bb314c95 bcd5b56c be865b17 3e4c3dbe be38c4bd beab868a be210bff bf621eca 3ef5a962 3eb5a79f 3de313bf 3e5b7338 3e86607f 3e310293 bdf3c843 3e4f7bc3 bd6cc66b be349bf2 3e5496c4 3e3ebe6b bd0aa8cc bf136d82 be17344e bde719ce bd95dc80 3e23593d bd7e240e 3f081ddb 3eb4cd19
body.stage1.4.1.running_var 32 3d02f8e5 3d14e888 3d966daa 3b872f55 3c590dc7 3c86dca5 3d8730db 3d16103d 3d4ee3cb 3cac7011 3d74d6bd 3d986b76 3df9cef9 3cdbe451 3d96732d 3dbac42e 3d8be8c6 3cc49b5c 3d8fdbd7 3ba2dae8 3d8fefd5 3de2e65c 3d8cd0f9 3a4f9995 3d8f61c8 3d4cb0cf 3c4aecc0 3cb609cb 3d420671 3b91c4bc 3da65398 3d2a7b41
body.stage1.4.1.num_batches_tracked 1 48275300
body.stage1.4.3.weight 2048 3e5a7705 be60e085 bdaaf3a4 bc27e945 3a55637e 3b9eddfe bd98c0b7 3c78a0c9 3d96e77b be7eeb36 be45856b 3d91102a bd9243b3 bdd29a14 bd42a98d bd830115 bd908a3b 3da6bd7b be0055b3 bd079cb3 3bf973b9 3f4ba977 3aeccc6d bd46dbb9 bdbe4587 bd960745 3da52b22 beba8b14 be2880e5 bd8f6bbb bddf57e6 3dec37c6 beb82fe1 3e1638ac 3bb54248 3e043f2c be0ef7f3 be0d35e7 3e04bb39 3e074903 bbbfa555 3e0d0952 3e500b87 be2901df be0c533a 3e8e8438 bc879c5e 3e721a67 bd193037 3e333119 3d9ee936 3da60d3e 3e00abb5 be07f0a2 bd8613e3 3da7e0dc be4a1da6 3e29d5b0 3d22e0ab bc2fbd0a 3d2bebd1 3dda282a 3e27b303 be136e35 3d9a1ef1 bd594f5e bd0a2a28 bdddba19 3c82e872 3d173118 bb86a202 3bc0b9f0 3deb006b bd53e558 bdc4ac83 3e128f8a 3e7a1736 bdbb38bd bcbbf811 3d17faa2 bd27dc4e 3d8fdca3 3cabbc13 3ca49447 bce8e0ea 3e121930 3be7cb0b 3e095249 be06c6b7 3d6d3224 be9b0bc6 3d09c561 3eb5e8cf bdbc2be3 bce4b12d bf00348b 3cc1a842 3e0d528d bdcb0fe4 3e149853 3e61c5ff 3e4b1056 be3d2dbc bae9ae29 3c7cbbe0 3e48d482 be2e03bc bb9fb062 3f0b3f8e 3aad8d6d beaf4de6 3dba0ce6 bc137b2b 3e765605 be29d26a bc7809d3 3e89b4e3 be2c9781 bde0135c bc944d9f 3da5cc6c 3c943f7e be30b0c6 be624428 3e9b3f8e 3c6c9708 be8aa122 bdb1d8fc 3a6da2d3 3db7e124 3bcd2822 bac82087 bda9deb7 bdc81351 bbb87c3e 3c58eba8 bbadc5d1 bc35321d 3d049232 3aacbac2 3d59d35e 3c4aa6bc bc779231 3db177ad 3c86a789 3d33dba5 bd4c8824 bf03b260 bc090534 3b87310a 3a8493fd 3d077daa 3c49ffbd bc8906a4 bd94dc34 bdd0418b 3d8ecbff 3d4fb684 3c979621 bdf3c8e3 bc97fd2e bdde7df9 bd81d527 3e02c9c7 3d6c865d be594b27 3cf67357 bded6cb7 bdd9b204 bbab9896 3d908a60 bda45dd2 3da32c9f bba0e66d bbd2f92e be2faadb bda6a0e7 3d281f0a 3d6c0206 3d86cf99 bcec3df2 3cf2ead4 3e0618fd be3354a8 bc71bb3c bca6ea0b be45ed9e bdc0d7cc 3e55221d be74dd4c bb756048 bd154583 3c0ba157 3e66b349 be148cbb bd94701d bc9ae8d5 3e2052ab bca14f71 3d51c7da be0ce9f8 3d655ff9 be2ae9df bdddb159 3eb5abbc bdc8f178 bdb1fe46 be818828 be06f79c bda63c60 bd81bbd0 3e2cdfcf bcca56c0 3d7de5e5 3c49c1fb bcf6b54a baa2f5d5 3c981843 bf155f6b 3e1efbc1 3edcb721 3db06940 3d58c159 bf2303eb 3c659159 3e3e1549 3d052b19 bd9c6c32 bba8cd09 bc2b33fa ba533690 be5a6a9d bd913041 be71b045 3e304fd6 3d22cc56 3ccd93dd bc21e89d bd034dcc 3dc4fbff 3bd12bd5 bc166c03 3d1eb3fc bb9536fd bb6f85b8 beb538ff 3c780b69 3d0e79b5 3ed74b08 bd86d937 bd0576ae 3e7cad93 bc917ed2 3d0f6525 3cf3632e bcc02763 bca79720 bebbc9aa bdf9f8d0 3da3ffab 39ba5231 bd0677ef bd0df0f9 be3053cb bd858e15 3dcc4c80 3e215007 be7fb777 3e860331 bd783060 3da240d2 bca0e766 be2c72d1 3b1c663f 3d8994b9 3d993ffd 3c62fe42 bc52b8a1 be79ca88 bd015a51 3d8b691b 3dc76def bd994d02 3e3ecc0c 3ce85cec bd229333 3e5c5644 bd8a3199 3de21e69 bd31fe76 3d0b69ae 3d1ad15d 3d561f5d 3e373d6b 3d5c3cf0 be1a660d 3d846add 3dee9f4c 3f09ca4b 3d5f53a1 3e1809d4 3dc9b3a9 bcc0a377 3c8b27fb 3ccbfd34 3d80edda 3dbf8f17 bd168c61 3d6e6a25 3d0137e5 bd0fb4d1 bcc4b869 bea9de1a bd8b053c 3c0e5a90 3df80af5 3dfd4a3a 3dcf45f8 bea266c3 bd55b14b 3e00c33f 3e024bf9 3e20bd7e bd71dc3a bdfe9773 be1a8ba6 bdad4d2f bd488776 3d5a5510 bb8f0d7f 3e3bdcb3 394babf8 bec588be 3decac5c bc01d554 3e014b2e 3e15ef04 3d96eca7 bcccb526 bc94b632 3d7dddac bc778ba3 bdb3bff4 3c53e7f4 3df0453a 3e0c2e9b 3e4e7c57 bde7d3c2 be59cbb2 3bcb710a 3e204ff8 3ea161ca bd8ea975 be11d2bb 3dce3150 be0dbc05 bd282116 bcc7b560 3db76898 3d31424d bb952ae1 be0d9a1f 3eb2c627 bda1278b be9dac63 3dd540f5 3dc1a89a 3e182db5 3c4c2f51 3e1440cd 3d3ca1f5 3c78875c 3d285365 3d8aa95f bb73ce87 3d9a7040 bdbdcc50 3d3dc155 3ded9852 3d0b4298 be44b0d4 3dc96bb8 3e4414e8 3dfde62b bd1ec19f 3d8b0d95 bece5377 3e1af0f8 3d8d1c16 bb81803b bdd8dad9 3dfb901f 3da06fa0 3d26d4c0 be8c7d7e be271f9b 3dd65e1a bdee4174 bd4da31a be49ba80 be8fdf5a bcc96f59 bdac3ad8 3d0d9311 bc89bfad 3e059500 3cd0537b bdab45ee bda92442 3c612b78 bca837dd bd4881c6 3d869a65 3cbc21c8 be91fb36 3cd38f56 bd46e75a bd8bae14 3d19bdb1 3d0b3f2d bc014d25 3cea52a5 bceab65e be0f299a bc08f149 3c330ec6 3db6d667 3dfce627 bd6c005b 3e287ef1 3de51ee8 bd1c88a0 be024b2d 3cb01fe1 bd2afc6d bdc5ad74 bd2aa876 3c8dcb0f 3da8ecc0 beb4afb4 bd869ee7 bd2a6d05 3d63206f 3db3f8ee bdb2d403 be1c389a 3df7acfb 3cebc7e2 bbf38f19 3cb18348 3e1e98f0 bdad0f04 3d8e99df 3ddafcc7 bd1c8021 be45f8e9 bdae176c bdffd7e2 3cdc332e 3ebfe40b 3d82e55c 3e1729b2 bd08144f 3d2ff662 3dadadc0 bde6caa0 3dac6ad4 3ceb4ffb 3d087898 bdae238e 3d302a66 bd3ddfbe 3e0cadee 3d07da60 3cdecf2f be26cea8 3c05d6f1 bdf8916f 3e3cec83 3d28332f 3e557ea4 bd9f4383 3bf8dafa 3cc1379f bca317c5 3dfad35d bc429a2e ba97588e 3ec74584 bc6bd2eb be49b289 bc165712 bdbb52db 3c4566e6 3c49f72c 3c09a933 3d4cbc6e 3c123539 3bc03580 3d04a47b 3dab7c8f 3f6b4553 3c5354a5 3cbd908a 3e1f0283 3dc70029 bc0f9d0f be1d0c6d bc985b73 bce784e0 be115f2d bd465499 3ddca9e8 bd154a16 bd2d7e01 bdc1ecfc bd6e9d03 be5c8776 bd0eb938 3d991b42 3cf9d363 3dea2712 3ee5ec37 bdeb877a 3dc52f07 3d5f3caa bdcddedb bd1b7826 bbe54ccc bdab569b 3d0e63e2 3d18b6c9 3c6c8a29 3e096c4e bb3e65ea bc91ecfc be804059 3daee84c bd88b413 bdeea58c bc9b216e 3cb743da beb2dce1 be1e5b36 bd1e9e60 3dbbd5c3 3db78afa 3c365c09 bcf7f5fa 3c8d28f9 3eab14eb bd89e2c3 3ab011ac 3b9dc022 bc9eb6ae bdb2213c 3c994dfe bd7af1f7 3e92f2c4 bcc87e49 3d56aa0e 3e6544c2 beb4a9ba 3d0c529b 3a156f5b bc8c124b be3a6b74 3ca9319a bcf799ee 3dba4c7f bd318898 3d664b23 bc50d5a9 3cf64c6a 3d1e59dc 3c052810 be1456e0 3e5a3cf1 bccc8232 3d52708c 3c58202b bd51b79b bd255749 be804263 3ea604b8 bdb95133 3eb5dd63 3c44400b 3e1c3846 3d83c7eb 3d55b862 3d7fe440 bc3eda29 bcbfa4d2 bd291cef 3d0196e9 3cc12322 3df07c2f bc69d2f7 bc7cb092 3f4dd51d be9a57f8 bd5a12c9 3e6f4629 3d8d7795 3d7d8670 bebe6446 bc7c63c0 bdca7928 bda5ecee 3dd8b2b4 bce912d2 3ea390b4 3e1730b0 3e3c7547 3d5b7643 bdc383d7 bdbe901e 3de25693 bde0d8e3 3eac330a 3e97754c 3d5201cf 3ebf44d7 3cace5e9 3e826f5b 3ed323b7 3c9156d4 3cff17df be5be8a0 3e9ee7fb bd499287 3d1eddd2 bdf59756 3e5ec561 be2e3c5f 3ebed3bf be13b650 3c181d59 bce1c0d2 bdf80da8 3d4db044 bd050442 3d00aa58 bb928ec5 bd8aa8a8 beb0bf37 bcf024a4 3db13bff 3daf5e44 be88a19a bd8069dc bd54ea33 bd9b975f beabac64 3a133832 3c8f298e be4d0101 3e6f0a2e bb647369 3c7db962 bd8e85cf 3e1453ae 3cc6b43b bdfb1beb 3c894862 3ca52f87 bd58c492 bdd1cd46 3b495c9a bde8ca0a 3e4bf5fb 3dad6dea be51e3cb bd83af53 3d492751 3db63c3e 3e338acd 3ca4ba17 be0733fd 3e2f8df4 3e4c3ee7 3e4899f9 beb5222a 3db4753f 3ccfbbd6 3ce2c9bd 3d8b03fa bcc0f06a bd088a20 3c7dde03 bca36e95 bcb6a071 3d93207b bc252830 bd7d80fa be090369 bd8ecb2d 3d79d109 3e8504ed 3d5748a1 bd5c1005 be610c2a 3e1f3e26 bd5d6325 3e119a3a 3db48e22 3de29203 ba88d2d3 3dbb3d07 3d3fcac4 3d7a46a0 3d8aab58 3e2ccb13 be2b12e4 3d787994 3e670bf3 3bbff5c7 bb34f561 bc2b9803 3d91dc72 bd84c560 3d885ce6 3d85dcc9 bc69bf9b 3dad4286 3d228bd1 3d2ecfb7 3eab67f7 3c137bef be2626bb bc503d2a 3de6daa5 3dfe5466 3eb247fe be8b95aa bd867b06 bd9a7d92 bdb75d78 bccf0d7c 3dabb6b1 3e341f5c bd1868b9 3e8e43ec 3daf55df 3d31c289 be8d9f10 3daec460 3d91ab11 ba81e2ab bcd3c9f2 bcbba7a5 bd92410a bb7ac233 3d2c93e5 bd908444 bb1b70ef 3caaeea0 bd445ece bcc87d1e bdb569b2 3ce8e586 38be7ee8 be454604 3d223fa8 3ce9d773 3da447da 3e641cc9 be4c2713 3e02f3a0 bbe9df1d 3c483e11 3cc4d563 be6afa49 bdbbc59c 3d52c6e7 bcc2b96b 3e114f0d bea1a9aa bc834152 bdc2ada6 3d5aa604 3e0852c2 bdb87619 bb55750b 3ce5b53b 3dad6fc5 3d94969f be2723cd bc926611 be53183a bad56509 3d8318eb 3e8a54a5 3dcbcec8 bebf8ea4 3d9bfb4f 3a7b061c be1e8a17 bca32d0b 3db72c6c bdb861fe be742fb7 bdb51692 bcda317b bdee61e6 bd2b5ff0 bd4151f7 3d3f9592 bde63ce9 bc0f6eac bcf597da 3d6fdca9 bd2d2d22 bdd3a794 be6a164a be237418 bd9dbf3a 3e5b4ae6 3c1927c8 3c974833 3e1a6cc7 3f2df464 bd76ee31 3dcc1f95 be2f7489 3d1a457b 3d89843d 3dbe7471 be824e43 3e85e91f be06d5ab bd98ddf9 bf1178b4 bd09c01f 3e888d40 bdb527f8 be1e242f be082d24 bde22756 3d400b8a bd7f3f33 3d220897 3f2e5d40 be1fbb5e 3d68cf7e 3d994b5d 3daa6067 bdbd95aa 3e1620a8 3dceadd1 bc48cec2 3e3e120e bd13552a be416208 3d930705 bdb05c15 3e08b638 bce7d33d 3eaf282f 3db0f257 bd9969ec bd3aab59 be033b5d bc04cc4b 3d125c4e 3f34634a bb85d494 bd060d97 3cbe93bd 3dbb4b86 3d65fb64 bda7dd7d 3d748574 3db9dedc bb962138 3d128cf0 bca7eb25 3cd3c3a1 3ea48dcd 3f51bb10 bd9eb7c6 3d0db044 3c3947e3 be145d6c bd98b68e bdbc8e04 3d7410b4 3d42c4f6 3c3f9f30 3ca824fd 3d18f52e 3d3906cc 3c8ca5ef bcc65f20 3bd909a0 bd726c5f 3e287112 3cf0ee28 3b51fa8e 3d58e88f 3d510fe7 bbf0dae4 beb3ed04 be274838 bed005cc bd7ac787 3d926bb2 3d8c8c2a bd7a659c 3d9d3a4c bdf85fe6 3b35cdd8 bd5437a0 bd80c1db 3b15da86 bd83ae7b 3d4a2dcc bcfc1147 bcb79231 3eb93362 be99e5de bd89ba83 3e60131e 3d801991 bd7b62b3 bd78742c be02171f bd80a61f bba8c0eb 3d14ace2 be044e8e 3c90c94b 3f0dca70 bdd9fc5f badbf457 3da11781 3cd96a87 3d07182c 3dd1f73b be1d6108 bd0c438c bd56e15f 3db45de7 3dabf08b 3e2d28c6 be0a1b64 3e9372d3 bdb9809f 3ca9bc8a 3d4fc481 3ce3ad85 bd8b60f6 3d8c4516 3e4d8d2f 3dced322 3e9e3238 3ccf008a 3cbfe128 3ea07577 3ed856b2 bc379e3d 3d35ad71 bc818d19 bd4e6812 3d1f97f1 3cf364be 3d2bf248 bec932de bcf4f1f8 3d7c7c1a 3da0f835 3a270747 3d99d235 bd61843f 3d2e2797 3d12c55f bd266f2a 3d5261dc bc25ae36 bd3eb3c1 bee96064 ba2ba43a bd0bd6c8 be8405dd 3d49dde3 bd91052f bce3887f 3d8d7cce bb14b163 3e1d3487 bd9605b6 bc2662ef 3cf9899c 3c741177 3d726d03 bc1aa45d 3df49a54 bc429f4c bda3aaae 3d6d3e1e 3d61a0af 3e657cb3 bd9bfd61 bc66195b 3c0961d8 3cd5642e bdc9373e 3c1501e9 3d197b1d 3c54e490 bd1248f6 bc9d7d94 3d3ac736 3d86d0f6 be97a798 bdd437ff bd92c7e5 3e2a3a3a 3c1594de 3e0a48e2 3ef83f08 3e2f2a88 3e22724b 3f20cd56 3eb00226 bd9db345 bcf72070 bcd9b25d 3df12af7 bd63f800 be57a5d1 bed0f52a bd0986b4 3e26beb6 3dfc3722 bd9d502a bdaa4974 3d50f5d6 3d18ea64 3c3149e2 3da0112d 3c6d1a41 bc29e3bb 3e0216c3 3ceb7cb6 bca7bafe bd07c862 3e9c5ff3 bebd753f 3dc76d9e 3e3c7c9c be527ca2 bd3c6119 be967c77 3cccf811 bd4be6d0 3d01306f bc516ddd 3d8d1a96 bd143af0 3e20f4da 3ea9f0ba 3dea6595 3c46798c 3dcfdd09 3d1f0fcc 3dce2cda be4ab766 be3f3e90 3ec29286 be4e63e8 bdc8eb80 bee81330 3f055d8e 3d7a73f2 bebac277 be12c4b2 3e06153e 3a1e846a bb288005 bd24adf8 3e08a5e1 3c978c93 be381040 bc120d3f 3c22f4d8 bc266c9a 3d1b56a5 bdb2a1a7 3ebda334 3dee8bca 3df117a5 be77cf4e bdc9542e 3d91b2be bcbe1485 bdcd6aac 3e2b46d3 be2d81ab be57cc76 3ec2541c be64c210 3ee963b9 3ebf76fd 3ec90f8c be3d7f8d 3d19faf7 3e77ef51 3c97bb78 bdc2b5c3 3e27894b 3e25c935 bdd7f0ed 3e8e7f8e 3e3c3ac1 3b4d18d5 3e9e07ad 3d80f8cb 3ebb3cf9 3d2ff9cd 3cc43d10 be1f570b be67d745 be9c4556 3d9c256d bdf18b61 bd7601bc 3d9cc82a bd0aa45b 3d6ca49c be92537d bd9ba3ee 3ec59fda be693912 3e9858db bdee9289 bcbe0919 bdd5049e 3d6aed9f 3d518e2c 3d1bb8b8 be39943a 3ac2cd00 bcba474e bd3d2607 bedca060 be1bf02b bd519e21 3d7b9341 3eb6cb46 bed98813 bdbe5f93 3e56ce3e 3db22e02 3e16c5b3 3d2698a9 bdd81edb 3e22fd99 3e93756d bd45ed38 bcc52173 3e0fabc2 3e9be319 bed82e62 3d49f563 bef8bb54 3dc6f5ed 3c963dcb bd98770d 3e245bae bdf09481 bda83e5a bafd9bc7 3da09cce bd357f70 bddeea74 3cf275c7 3e3b96d3 be047a5a bd4f983f bccdf632 be624035 be8528b6 bcbabf8f 3d27073f 3d3ff714 3d265b03 3e7917f5 bf08f1e5 be1fac31 3dfff6f6 3cfcc8ca bd74a1a4 bc985e11 3e0d11b0 3ba6dd68 3da73d3d 3d1328b9 b9e8f251 3d938f4f bd1cd434 3cbbda15 3ef23743 bcd5d2e9 bba8c58f 3d0b4263 bcfe953a bb875765 3c3d1139 be323588 bd61f141 be162be2 be518057 bd29c274 bd833452 bcfb06d4 bdc17caf 3c4ea6ee 3d2153c2 3be011ad 3e08333f be81dd97 3d0c7505 bd8e2b80 bd34ec97 3d487a24 bd284dc0 bd09777e 3dd36c25 be4b6905 3d789bb6 3d6c2262 be35e151 3eb415c1 3c1c00c2 bd824a25 3ba2ed13 3ea508ac 3cdf8dc7 3d150184 be60b693 bcedaea9 3c88f241 3d6e7876 bd51b2e2 3d68ae1e bda7f177 3d511b1e bcf4e3cb 3db49f7d 3d536d2e 3d3c9744 bd71cd8c 3f5f2bfa bde92d4c bae1819a bde45bac be0531ed bdb7658f 3e8ba523 be2bd01b 3f41a365 bd9e416d 3cbf65d3 3ea7cdf1 bee4c5ad bd1e6f53 3af006cc bd4028ea be9685c8 3c01d641 3cc1b662 3cd65cd0 3d064874 3c8d85c3 3e385102 bdf57413 bcfee2cc 3ca48c12 be0d929a bcc292f6 be159d20 3d37c348 bd94dd32 be0ed19e bdad7571 3dcc161f bc8fbddc bbc2efca be793f81 3c839a05 bc9350cc baa8bcdb bddbd7c0 bdee861f be0d8980 3d95def0 bdad88bc 3d189283 bc7d471a 3e1f1ecd bde9ecad bea8aa92 3dffcc4d 39e68b52 bd5ea419 be423006 3d50fb7d be0c6313 bcabd43f be20a624 3d1d87f2 3de92126 bda96da3 3ed28f81 bca0a822 3d8e5888 bd3302e6 be271337 bd8333cb be0612a9 3f07df0a 3eed87d2 3e88df49 3d837282 3d12fd6d bd02c0ec be258d01 bd7ff7f9 bcc5b504 bca27241 3d4bd252 3dc1d580 bd8d262e 3deaa93a bd7c834e bd811643 bd092a94 be770523 be0dad83 3de686ed 3e888a30 3e49b344 3dbcf60f 3d7d2de1 3dc0e19b 3c704e9e bd1f0dff 3c9f2a65 3e067b4a be1ec1f0 3d8858fd bde69578 3ea2a27e bc9ce9b1 3d6f3b16 3db90fbd 3ddd4796 3d9464c5 3d15472c 3d842194 3d5d1211 3cbbc7ce 3b86f522 be1ef605 bd0ebbd4 3d2a749c 3ead7947 ba8bfb41 3bbf032a 3dbbb41c 3d34f041 3c94aec4 3e369f0a bdc339d7 3da4fe08 bdfbdddb bd08d236 bc385376 3ec24314 3d14b4fc 3de02d0b 3ebb7f2c bd6d066f be881225 bd7e4680 be6d934c 3e843ee8 be0bf7ff be5e95eb bd7056b7 bdfb1eab 3dfa0e25 bc86aae9 bdaed935 bdfb0701 3e92b24f be34808a 3e4547c3 bddb9d36 3dfdf75b 3d159db0 3eb1e969 3e1a9187 3cc4a5e3 be3f1d36 bdffc8cd bd735245 3d5e8cd2 be6cef2d 3d21b844 be30af9d bced12cf bdb7200d bd8bba20 3cefaa13 bd410468 beaff04d 3d4dfb81 3e168189 be0f4952 bc286696 be7b4eb6 be2bb087 bc787e03 be14b557 3db34624 3c984e62 3cd24e02 bd805bc9 bdbf487b be7273af bbe06b64 be5003b9 bd09bf29 3e1970b1 bd52c850 be96223f be2edd0c be5800db 3daf79f2 bd975766 3c1b5353 bd948f15 be1dc19e bbf5221c 3ca1655f bdc03176 3e032452 bea3e8db be866650 bdf74ab2 3c99ee15 bddfb481 bccd1b8b bd4be2ba 3e4aa0b8 bdc8d648 3c04757b 3d796f8d bdbd2a5c be1d4a7f bcb541e5 bcb212a6 3e6b1d95 3d9b84b7 bd7963ff be1876cd 3d7799d8 be6e75fc 3ec91e77 3c1a4489 3cefe5c0 3d046442 bdebb798 3e9454bf bea0bedb bd6ecd71 3b730f11 3d3d22c8 ba0c6d59 3d4f931f bc3e726e bd5c265b bd3faff6 bd9aef37 ba83a5a2 3cd95b55 bd894522 3de0e6c6 be3233a9 3cedf11c 3ba50d53 be0470bf 3d7d1f45 ba880c5e 3da49853 3d9eca1c bd44776d bd383d7a 3c7f8424 3d22af5c bd5451e4 3e0a5a6a 3d7f2ed0 bc95302b 3d4be86d bc38ae33 bd1b4bbe 3c331a88 bcb1391b bebaffab bdd0c18f bf0b05b9 3ea1fbfc 3d8acd29 bd5980a4 bdb38e84 bc2e9078 bd717c2b bcf05e63 3d27db84 3d24f6b6 3d3b0c90 3d478858 bdd22e01 bda74021 3ec194dd bdf9a8e5 3e12a637 3d0f51a2 3c60580d 3d074818 3ed63496 3bb8bde6 3df8a67e 3c0d6c1c 3cbf26ec 3ccfaf3c 3cf91beb bdc00c68 bde5e52f 3e292d01 bdfe6805 bd29e9fb be1bbf0d be299e9b be0d0b9a bcd3b872 3d9980c4 bd6fda28 3d21c55b 3d0dff15 3da5851d bdae535f 3dac1843 bd88e7c0 be739a82 bcf44770 3e859738 3c2e63d5 3dc05007 be0f6312 3cf56a26 3da2b5a4 bd236050 bdd88dfa 3d8f49f4 bd222c55 3e2ecfec be128f63 3cf3b589 3e311bd9 3de6435a bd081bf1 bcec91f9 bc9c46ef 3e55f293 3e0139e5 3dd2caa3 bd696576 3ccea7fb 3dcc742b 3dd415e3 beaba857 3e0c96d3 bc69ce54 be202387 3dbd084a 3d9ea4d8 3ce7cf2b 3ddd0642 be21ce90 be1ff7b1 3d3aabb0 3c868f16 3c87f6d3 3ef4cb11 beb83f19 3db2e425 bdd941b7 bd346465 bdcc19f2 bd3fbe7e 3daeeeb2 3c73fb85 3d447a51 bed06942 3e0e7cf0 be1d1bad 3ba51151 bb9b1a85 3d27b627 3c2ea52b 3c88ca7b 3ca17ec0 bdb0ac9e 3bd7350b 3c1e607c 3c8e435e bd943297 3c8f9e14 bc382965 bf17c064 bc6d34b1 3d0f94f7 be2f95b5 3c772273 3cd32216 3e3b0f10 3d3fc122 3dfff11e bd304de3 3b95fb23 bd14806b bd7b5db2 bdacf409 3cab313a be2ba845 3da96913 bd7e5978 3ee72745 bde190e6 3dbc73a4 3db8c4ab bb882276 bc98aef1 3c6d97bb 3cb040ed bac4e2d4 bcdfa8a2 bb23fe3b bdab9770 bdc3ea54 3d3cc03f bd8e346c bd9bc21f bda5149c 3e2a0496 3bdf6a95 3d991886 beab7b2b bdc47059 bdb5dfaa 3dce4ca5 be288030 bc3ec1f9 3e067eab bdfd67c3 bc6dfe19 be915626 3d8b7624 3d742dd6 3d9cb0c6 3d232534 bd97c28b 3e554206 be1ea628 3e43ecda bdebe1fa be9126ce be9e9a93 bd037a74 bf795d38 3d977979 be84e003 3dcd3213 bdfe4775 bdf54fa4 3debfbaa 3dfcde74 bc0ed91f 3e29e02e 3daed2b4 3d5066e8 bdda4306 3d72f63e 3ec96c4a bc1ce1e1 be087a5a bdf16c3a bcf6bbdf bcc12f8e 3dc3ba6d 3d17b943 3de5b063 bd185c4a be14bf0a 3d91b7ba bca4321c 3e16e770 3ecb7207 bc11cd22 3d1e1fbb 3b7add59 3dd50805 3d824550 3c1b3c5e 3dbcdc84 3d770a38 3ce57025 3dbb9818 bcd0adf3 be2d54bc 3de0b445 3e744543 3e10cd55 3c86c6bc be397792 3d945327 bd9bfa8f bd19950a bdd2fde4 be584ab8 bd4600cb 3d68d282 3e2bc5ac bcbcca1c bda4f698 3d64136a 3cf8d34d bdcac8d8 3db4caa8 3dacb0a0 bdd4d3fc 3e095bc4 3d714390 3baddf95 3d4f7471 bdcc9380 3d3ae65a 3c442959 3c83f8ca bd15756a 3e0f6ae2 be122ff1 3d808dfd 3c947fe6 3c097d60 bd244826 3cbc4ce9 bd326fee 3dd56142 bd5fa206 3e388075 bcb3e785 3e2845a2 beb9560d be0cf8b5 bef30077 3e1828a7 3c9d5f17 3b6074a3 bd117b31 bd51d621 bdf16a9b 3d8e78cb bcbb44d0 bdbc1114 bc54de17 3c9ca4f3 bd88ac8e be4d1a88 3ef3d7fa bd8b822f 3db348a9 bd08d2b5 3e0d6836 bdaeffae 3ea8cec6 3e512f67 3b0a2255 3de78b8d 3f163072 3c7ca264 be0dc04d 3daa6e77 bd64f42d 3cbf48eb 3974c0b9 3da02bb7 3d17c9a4 3d4c91c6 3d2f9475 be571b3e 3b7740c4 3c630b0a 3f1ed579 be622b8a bd433de4 bd985848 be5ac404 3d1354b6 bdd452a5 bde47704 bcca610e be02b624 bdad518d 3d8f5ea5 bd5bda90 be0b0cf6 3b303d64 be85ce36 3c1ab080 3ce71ec2 3d291604 3ea5bc93 3b6c1e38 be8f592d bdd96e7d 3cfd2dcd 3d09acb0 3db4365d 3d2afd7d bce0e65a bde8cd16 3d95d07a 3c81aa53 3d999166 3c3e278c 3caf4582 bd9dc991 bf424f5f bbc21027 3d2c3a92 bdefd8e6 bbe6ed00 3d6c3850 3d40632b 3e22590d bcd4e20d 3d6238dd bd1975b7 3ae1f0f8 be0ec40a 3d315693 bdc5abad bc55bd43 bda99634 bcee709a 3b431912 bd2d6ef6 bf0f135b bd95e7aa be9af7ae bd8fe643 3d5bbebc bd4acc24 be060099 bd4d1ef5 be542d20 3d0ea89d 3ca383f2 bde9ef88 3d7a6099 bc8d05bc 3c17610a 3c102b9d 3d9d5bf7 3def4df7 bf00d9f1 bb34a220 be61f026 3bc22a7e bdeca23e bd664dc2 bcc01a1b 3d21693c 3d259c9b 3d328a6c 3d8446d9 3c228c3e bd2b12a4 bee50735 3d474b22 bdad13ef 3dfe3ad6 bd725bfa bd1e92cc bd104d54 bba7fbd8 bed12e94 3e5cde62 3d29a730 be6151a2 3f2ebc0d bd021bec bd9c142b 3bd96acc 3f061504 3d9a92e0 3c619adf bdf998e8 3ae948a8 bd8277d2 3d15a474 bbfd24c9 bd89d690 bd173127 bce4bd0f 3e341628 3cb32c7d 3d311792 3d1541b5 3da37ae2 bdaab3ba 3e6161f0 bd814bfe bdb8c732 3d088079 be85d130 be4c2d9c 3dc43640 3e24f3ee bd94c29d bb6c658d 3cc5a277 3e0f1e63 3d08027b 3d394634 bd282055 bef859ec 3d0d9fe6 3dc8e5a8 3d8eef47 3da554c4 be5b30ff bd7abaa1 bd87e9ac 3e38a856 be09cc0e bd1668be bd0cdd83 3deb6f59 3c8f4dc2 3b086fcd be8fc76c 3d5394e8 3d1140e4 bb9188b9 bb728517 3d67fc52 3dc49ebc 3c95c730 3adc75ad bc732ccd 3d937fc9 3d8cbbdb 3b162df8 bd167c80 3def51c9 3ceef15b bd087987 bdaf5959 3dd482a2 bd2b6255 3da9932b bdcf9496 3d807a2b beaac2ea bcf8a23a 3d977aed bdb19588 3c4a0523 bceb7bd7 3dd1200e be289fd1 3c3667f0 be15321a bd7eca7d bdd7ed80 3dc98a43 bd736c25 3ebb43dc 3d8b44c2 3d92a334 3e031529 bd84191a 3df74039 3d9418c7 bdf1c4b7 3da16fd4 be229a94 bd19304d bc35fc46 bd632dcb 3d4c5047 3bd62a1f bdb544ec bb729995 3e0685bc 3c3894cb 3cc842ec 3e5454c7 bdcd3338 be1736df 3d85a9f5 be1fc19c bdf5993f 3c71a03d 3ddd85c7 3da29474 3cc2ba89 bd859409 3d61f40a bdb54df1 bc161e7e be13c662 3f41fca9 bc9b9b6c 3f455cab bde03859 3d188ff6 3d8e12a6 bd283d2a 3df718c2 bd1b5e88 bdc3855b 3ebae027 3b059d3b bcba837f 3d04b2ce 3c2b5f6b bdea2ace 3ef9fe7b bdeb06ff 3cecfb0b
body.stage1.4.4.weight 64 3df5a301 3dd11c20 3e74ba1f 3de42961 3db02254 3d73ef5e 3de8f8e9 3e12a0e3 3dbc59cc 3e2af8c3 3e585d2e 3e315d68 3e17f5d9 3d339916 3e101698 3e733f16 3e2b0c1e 3e12abec 3e46cf12 3dbabd15 3e46bf54 3e129f09 3e097121 3da34784 3dc2a4bb 3dec4f33 3dad6ea0 3e0c5fd3 3e10a2db 3e13ef73 3e7a1d14 3e03dc82 3d9873af 3ddb3e1e 3dd7ab38 3e5886e8 3e74a358 3e507fb9 3de28a36 3e0923da 3dd63078 3e166d43 3de0259c 3e189857 3e953f90 3e267317 3e04d5d4 3e9e0297 3def42a6 3e4d13cb 3e4373b8 3e27e1a1 3e92bf01 3e61bd1f 3e0b1763 3db70ea6 3e8894d6 3e2f50b0 3dac5669 3e16ed44 3e2d1b8e 3d9e2544 3dd31540 3e573dcf
body.stage1.4.4.bias 64 3e7c1b59 3e7a13ec 3e8cde1b 3eaa77cd 3e3252d3 3e85c363 3ea08907 3ea289c2 3e8407c2 3ea4c0da 3eb94531 3eb0b365 3eb0b1c2 3e5a1f9d 3e6bc511 3e16e0b0 3eaf49ac 3e8d20eb 3e7ddc8a 3e2a28c4 3eb866c3 3e948bf3 3e57412c 3e8e2a9f 3e949ff3 3e54dcec 3e886952 3e60de00 3e7989a1 3e15d1e0 3d969ac3 3e07dbf8 3e9ba974 3e89b28d 3e9b8fbc 3e2af684 3d30818f bae2ce32 3e7cba25 3ec8b134 3eb6490b 3e3fa2bb 3e5ef75d 3e69cfe2 3e2fb73a 3f07ea10 3e35332a 3df0c2da 3ea1b2a0 3ebe339d 3da7096d 3ea9f39b bd7ecb9f 3e3c1782 3e506fa5 3ee6890a 3e5972b1 3e097466 3e8b1acd 3eda90e7 3e4bb55e 3e846db8 3e614080 3e822aa5
body.stage1.4.4.running_mean 64 bedf9a85 3e7ee412 beb7afc1 bdc91131 beb4da57 beb8cbf9 bf35294d 3eb8e561 bdcdea4e 3ee555a9 3eec5109 3f095377 bf3f5ee6 3dac950c 3ec6a640 3e795d8f bef5da4c 3e4dc6b7 3f424c79 3f9f0327 bf29f905 3e80962e 3f0a9ea7 3ddfd215 bf1f211b 3db48a94 3d83026c 3f54651a be29e3c4 3f9e4732 be19053b 3f1bde95 3ecc921f 3eaf3945 3f97bbfe bf570bf6 be54b275 beab175e 3e01dc48 3ef5cb94 bf4298f5 3f4b2e57 3f4bfd5c bb735033 bfa047d9 bf05fa22 bed116a7 3e25f510 bea986ed 3ece2216 bf087531 be0ef840 befca0da 3f16f365 be46d708 3ee2c0e7 bd1b1209 bef53758 bf4fdb02 bac8f163 be0e5a66 be5c4b22 3e3c510d 3ed9e6d9
body.stage1.4.4.running_var 64 3e0221e7 3d115829 3e0ffee9 3dea3c57 3ca2f7ca 3cad347c 3e52a767 3dff46de 3d8c5bd9 3e24c2af 3dda7093 3d942772 3e12d802 3c4ac47c 3d9cbccb 3df9196d 3e0e56f2 3d5cadd4 3e717544 3e2e9080 3dcee87d 3dbd2cff 3df81ec6 3d8cf4ed 3d9d25ad 3dbdb762 3d612bb6 3e6517b4 3ddd2282 3d54d109 3d4c50b4 3d60cf60 3d74b6f6 3dab3cf0 3e38a8f7 3d692b6b 3dc6c208 3d6916e3 3d90f9bb 3e78c521 3da5a253 3dd19f87 3dcff391 3d761a41 3df7dbfb 3e63b2c0 3ca85a0b 3e814b36 3d50d30c 3e823c36 3dcd2d60 3e093625 3d20b918 3dd899c2 3d02799a 3e9e8600 3de6d215 3d82297d 3d4e4fcf 3e3597c1 3da9120f 3d0dd7a8 3dafc845 3dfd3a10
body.stage1.4.4.num_batches_tracked 1 48275300
body.stage1.5.0.weight 576 bbdf6d41 bd03528c bcb0d879 3ca4e936 bef7ea00 bd8f42ca bd22a6ba bdadaee7 bc8c1a6d bd8acdba be1d8b4b bd0b97e6 be243c05 3f3099ec bcb08149 bdb95479 bd1dfd8d bda6fdcb 3bd20b4e bf2821a5 bdd3650f 3dfc9f8f 3f0c7d5e 3e56e602 3cc8494c be6126e8 3bbe4d6d bd521a47 3e1fa981 bd87fc8c bd177945 bedf1372 bde34209 3d29b6df be2ab5eb bcc2bee5 bc18c7fc bdac5c3a 3b52ea69 bd473640 3edad6d4 3c65e9c7 3d693f54 be81168d 3c6d4315 3d8cd572 3d08b0c5 3d445d1c 3cfbd4de bed1e98f 3d0482cf 3ded584d 3dddd3dc 3e29feae 3c878b65 3e0d6ca1 bb4cd036 3df8b3c3 bf746b23 3be37f26 3d287dd3 bdf29010 3db0908f bdd1554e 3d0c71ae 3e304b69 be2fdf19 bef44d06 3f2a4b1e bdbc5ef0 be9539de 3e83c63a 3de5e56c 3d3421bc bd84e9ce bd6be5ed 3f14c2b1 be62a372 be34f46d 3d735953 3e6c8eee 3e52fd32 3f286f9d 3ebeddd5 ba57d319 bee3a031 be538fad be100311 be5f6ea8 be5a21d1 3df98504 be8d4410 3d02e835 3ec92937 beed6e74 3ec459e6 3e0f1b2a bec7035c 3d1595b7 be363ef0 be57445a be9adb1d 3e389bd8 3f16c293 3daa7ba7 bd21b492 be4bd3e6 3d53ed68 bdc3c9fe 3c24a33e bd8406c9 bd812f20 beb44e3b bd0ecf9b bdb2cb6b 3f7435b7 bdf760a3 3b0241b7 bb4dbb70 bbe803fb bc3cf38d bebca476 bc9bd70d 3a2611da 3dc8ff0a bbb037b4 3d89ef37 be09012b 3d8ecd19 be978929 3f3be424 be352569 3e13f438 bec81930 bdfb4557 bd628dfb be8f981b be2a74cf be91a1e4 3f3eb1c8 3988181f bdd3cd61 3eacc28e 3dc493eb be21842d bcabd075 3e086965 be737886 beed8c7d 3f4ecf1f be66a3f8 be04281f 3e9979e6 be75541c be0f44ee 3e81e16e be43d91e 3dec09f4 3e6f5296 3e919952 3e08cae7 bef25992 bd50659c bdacd4ed bdccb417 bb4e0c5b 3f137bbe 3e44dd63 bdb8bec9 3e580504 3e0d66d1 bbb4b131 3dbdbc95 bd77a6d2 bda5cc59 3f3197a5 3dd976df bcb055ca 3c65f57f 3c82152a be7d65c1 3da291bd 3eac4aa5 3eabea0c bf19e054 3c7de240 3ea4ec75 3e7413f3 be7904dd bdfce4ce be74e388 be4efba0 bc982c39 be6ff857 be28f6f5 3e4ed8d0 3f1b15ca 3e3f1444 bd529fc1 3d06dd20 39821f3c bd065743 bf2d1df3 be83f41b 3e209f68 3f2bf08e 3e5f9aa9 3c427a96 be015ff2 3bd5aba0 3e241214 bf097228 3ed60124 bcb05c2a be800248 3e725fb9 3d899911 3d75c137 bd921ccb 3de31fac bef48b80 bddab2e1 bde14e99 be1ecdab 3d0f87e3 bd3ac37b 3cec85bd bd91e992 bc73c958 bee842fd bdd5cff6 3c7aa05f bdd577f8 3d30cbc9 bd9b0cd6 bd3402bd 3c3dc0cb 3d6f60b8 bea48ef7 3d33ee60 3d49334d be8ec728 bdb5b419 bc4d2add bb3af3e6 bbddebef 3e046ef7 bf260963 bafef7f5 3da401d1 be5b24eb 3d6beb2a bde8e729 bdf7e760 3cbbdb14 3cabeeab 3f37d115 3e3bf43a bb7df174 bea447a7 be933d0d bcda297b 3c69e7ac 3d5eef72 be1e8590 3f001269 bc9f3c59 bda0bb77 3d8449ba bb97c228 bba9e7a4 bec14b6f be7ad65e bdb71cff 3f087b62 3dce4ce6 bdc90d36 3e80f0ad 3e25fbae 3d5c899f be01aaf9 3d0fd7f2 bc9253ce 3f052bbb 3d8832c2 bd19bf37 bdc55676 bcd981b1 bc3a26b8 3ca1f776 3d673166 3d18504a befa1fe5 be0688dd 3e10a3a2 be9f350a bdad46f8 3d78df6a be14cef1 3d62f668 3a65b244 befaf404 bdc23167 3db5ca94 be7cef17 bc40b237 bce6e37a bd3d8bc1 3c90f97b bd3a0ce5 bf2c00b3 be301635 bb568fb8 bde6c5b7 bd24935b bc438b4f bc1fe490 3c221ec8 3d20cd08 bef6eb2f bce0e30a bd5b4eef 3df90768 bcf7f50a 3d35a461 3da4c07f bdb2f5be 3dc3c42b 3ea174e4 3bd7f4c9 bc1ce063 3e068818 3e371252 3cfcc65b bd3c1e0b bcee74fe 3cdd0988 3e9e4b21 bd1d2b88 3c16e18d 3e5ca4a6 bd085eb8 be6359d9 be550d2c 3ea01923 be404451 3eb1e8f9 3d0cac65 3e875538 3d971aa3 bf02720a 3c18fb9e 3d849ab3 bc8474a7 3cbd58ca bf3f8f00 be1c1436 bbe24425 bd0c22e6 bd8d3bbd bdad5d7b 3d3fa021 bd345349 bdcfee8f bf03a37d be523aed 3df8c93f 3f14121c 3e2715cf bd1bee89 bc7d2d2e bd85fd2b be0da10e 3f2d7009 3df48ead bc20b26a bdacdb08 bd8bbaa7 3e2f7d73 be2716a1 be46dcde be00169f bf12cedf 3ebf0397 be1f2935 3e8ebf1f 3eb2c746 bc5532e1 bded4bbd bd7988ea 3a6a9afb bea3bb2d be188a8b bcd7d086 3d33f527 bd10627c 3e09d3dc 3ece95b9 3e1bca69 3dde898f bf5ecd99 be2618a6 3e11ddaa 3dfe828b 3e27b2e4 bd2e64c2 be6dd024 bccb60d1 bee97826 3fa872e5 beb43dd8 bd831714 be31dfcc bdbc72be bd5b629b 3ce8f7ed bc924425 be579606 3ee4053e be575c95 3df20157 be41ad76 3b205b31 bdc1efe8 bdda6707 bd44e77f bd1a03c0 3f232c61 3e54bf98 bd600749 3dc38322 bca1a2c2 bd82ec94 be60e44b 3c905e05 be0946e9 bee85268 3ec9dfbb bacd127c 3eacf403 3dcd9819 bdd15828 bee3abe7 be1125cb beaa136a 3f925052 be6fe120 bdc5018a 3d063e9e be0d4305 3d581b24 bea1019b bdb2bdc8 be1d1b90 3ebf7040 3db1e07a bd117edb 3e815569 3d788afa 3e5fad54 3ddcad35 be8cc712 3f237715 bd973776 befe5fcd 3e32b829 bda6691f be632b10 bdffe1d8 bd024769 be2f45e0 bd2845e3 bd7b55d1 bd202f28 bd93ead3 bda1d5e2 be0feebb 3b9e8382 3df69479 383a8e6d bec98467 3f0f8759 bedbf0d7 be425986 3e828596 be05195e bd86c81d 3e84987f bde694e6 bd791833 bea5a8f3 3edc0c16 3daa8ac1 be2b1b97 bd958073 bd6f01e3 3bce1195 397a1298 bbb106e7 bf1dd15c be0a7304 bd2b08f1 be017395 bdf13f53 bba7c8c1 bdfeffda bd4d4e78 be1d575c 3f5314fd bda772a1 bd9dce36 3d8772a8 bd687fe3 3d07c0b5 3d4e2070 3cca7683 be157083 3eab3624 bda50c7b bd4d940e 3e5b6f09 bd835f13 bbb269a8 bc855386 bd8d4078 bb23bc5d be8432e9 bced425b bb770932 be823fb6 bdc19adb bcaf800b 3d5294e4 3d88c94f bd01762c bf3b9dbc bc8206f2 bcd05335 3bc20730 bd3b8e42 bcaa8abf 3e5d1799 3d8e556e 3e686ef3 3ea7d150 bdfd9eee 3e249ea5 be08e78b be73e318 bc5dbb8c 3bb8d7eb 3d37327d bd91fb72 3ed211eb be7b3da8 3da57972 becd85d8 3e244303 bc3fd116 be8e599e 3e03787f 3f042b4c bf0d207e 39cd5793 3e789fd2 3c54d314 bdc709db 3ce9fdec be0ec270 bc9cde4a bcd67e38 be9e9ff3 bdafc2fa bde1cf39 be235a92 bde13100
body.stage1.5.1.weight 64 3ecf39bc 3e7df598 3edd3c46 3eb89893 3ebde574 3eace8b7 3efc5cf4 3ef7c146 3ec78a02 3ef450c6 3efbbe7d 3ecd9e97 3ee66dc6 3e9201b4 3ed18539 3e94d2f8 3f036b1e 3ecb74ea 3eaec6a2 3ea267b9 3eab64d5 3ef1b251 3ebccc33 3ed450c9 3e8f1510 3ea02320 3e7256d1 3ee524f9 3ea60c56 3ecb9d05 3e4f3868 3ea2d464 3e7d6686 3e97e0ff 3ece4c37 3e3df0bc 3e85578f 3e81e44b 3ef3c812 3f003be2 3ed0d1cc 3e9bf961 3ee2a591 3e512a13 3eb0c14e 3ed9a62e 3ea0c015 3e947134 3ee95512 3ecc6553 3e5e1545 3eeb8b61 3ecb753b 3eb24ab2 3ec7e05f 3ec639c2 3e8e8b45 3ecd739b 3e8f0949 3ef5680b 3ec71d07 3ed01ea4 3eea4954 3f1441ea
body.stage1.5.1.bias 64 3e4fefa2 3f0f8e57 bc997f15 3e5cfa7f 3bc8371f 3d306c48 3e8ed1fe bd3306cf 3dec6255 3d24ef64 3bbe16e2 bbfbeed0 3e4f3faf 3c0d5ba7 3c50df79 3dc6efdf bc7b3565 3df0ec17 3e4829af 3ee0997c 3ed0b529 3bfea3f3 3e06bc9a bd403d77 3e27f7eb 3ebf8273 3e6ca65f 3e30209d bd8b04d8 bc1e6338 3dce7bb1 3e23cfb5 3e31c443 3e739a42 3ea05079 3f501105 3ab09027 bd151229 3c7d950e 3e6942cf 3d256790 3ea8a198 bd8c7203 3ef1c8ea 3e91c566 3e953b0b 3ceb6919 3e028ea3 3c5c3532 3ee9996c 3de4c679 378cfa08 bcfa3c03 3ec13c3d bc696aa1 3e0d51b1 3ef3abfa bd7f4536 3e270bbf 3e14f528 bd52ca02 3b3d6ce9 bd871113 bdcb4d3c
body.stage1.5.1.running_mean 64 be38a28a 3c547458 bc88f74d be6b353d 3cb22fa5 3d4218a8 be57ee3c bba84778 3e05e42e 3aa9a8b3 bc174a12 bb822044 3d4da8c7 bd89528c bcb578c3 3d3cd05b ba68d3e0 bbb214e0 3e4f02c8 3e0062bc 3da9effb 3acea805 3c2cb26b bcf8159f be3fd22a be15eec0 be2e58f8 be0bb75f 3ce00a80 3d60deb9 3d008f7a 3d4ece90 be6fa51e be5762e6 beaa9f96 bda43bf6 3da41469 3cf44be4 bcb136f8 beba1bb9 bc8c802f 3d9492df bc2d2137 be20693a 3d2680b2 bd5df557 bc7764dd 3de1dc3f bc1779ad bdda44e2 3ce6e51d bb38ef88 bd4e952f bd1c30f4 bbe22fb3 befa6710 3d9cdb92 3d4b1ecd be49e1ef bea3cdf4 3dd364ae bbe853f1 bc272373 be719665
body.stage1.5.1.running_var 64 3bd67937 3b03c4d6 3c296f1c 3b97ec50 3a67429d 3a2aed28 3c07adea 3c11b2d7 3b8d5508 3c393dbb 3c24980a 3c0a0a2e 3bd1ffdd 398e9284 3b6e509e 3c9edf72 3c90b227 3baacb5f 3ca5b51e 3b997809 3c01774c 3c26cbdf 3b9dca71 3b067131 3b74fd71 3ba172a1 3af6cb87 3bf597d0 3ba36c5b 3bc4db02 3c046354 3b9d6bc8 3b4ded6c 3bc52288 3c3041ef 3bfb1bba 3ba7780b 3b09bfbc 3b767624 3c5d8cd5 3bb4ef3f 3bca91d3 3b36eb9c 3baf1b4a 3c0b30f4 3be49e7f 3b392fa2 3ca21ca3 3bd0fc17 3c40e13d 3b3f8541 3c75f917 3bed1978 3bec54fd 3b857854 3bff5bce 3c8c631b 3b9abcd6 3b32a097 3c3ed1db 3c1bdf02 3a534c69 3b2cbe53 3cb6ebfa
body.stage1.5.1.num_batches_tracked 1 48275300
body.stage1.5.3.weight 4096 be18a6ca 3d07abc3 3d2137d9 3e447228 bd8ee937 3d0d9e39 bd369466 3da27f1d 3e91bcfd 3e383e71 bde8e1d3 3d594253 bc379be6 bba702a8 bd3f08ed 3dee703d 3d435a78 3dfd9641 bd137d2a bdd84a0f bc96831b 3d9afd24 3cf2f1ae bd441522 be0a9ba1 be1a85e6 bef630b7 3e27d9d5 bda359e8 bd3a9d63 3e12d9a0 3d73a627 ba18e565 bdf8f388 3d75ae55 bdcb49f1 bd036688 3df2e859 3d5a36a6 3dca66af 3c91442c bd095f3f bce95fba bebfb976 bde6a2cd 3bbe8e3a 3cd8c932 bdf821c2 bd49b858 bd06e709 3e207cff 3c3916bc bd4ef795 3cbd0776 bd64c413 3e566091 be094eac bda09bc3 bcadb078 3e08bb7b 3d65b1a2 3dedd01a 3e1d92ca 3dcc212b 3d93c80f bcf6131a bd9dc2a2 3da56a13 bc87a27a bdd943bf bd56b004 bc3a3b0f bdbf5134 3beb483e 3da1cad9 3d20ca2d 3d08ef52 3c620a4f 3db7a022 3af8ee8e 3b406dc5 3d1f785a bdb3e1b5 bcf51151 bd82ca99 bd9da301 bd842b46 bcc76db6 3d9d831b 3dc0fc6c bd213586 bd87483e 3bec8822 3d0de24b bd5ec474 be5dba68 3e5373df 3dc8ac38 3a3d4678 3d81880c 3bd8efd5 3d306087 bb6d7acb 3cbfe9de bd00f542 bd0edb37 bd3b2873 3ce1cb88 bd21a383 3e4c573b bccd4879 bae4796b bdbcf121 3d535c29 bc7ee302 3c1ae42b bd3cd1dc 3dba8975 3cb5c7b2 3ccfcf71 bdcfb311 bde515e5 3e00ca2b bd764f2d bda70999 3d9ff64a bcb2bfcf 3b8dd7f7 3e057fd9 3dae8197 bda0ab47 3d9e7a1f baddbf29 bda06f00 3d470181 3bfd7820 3c35319c be1c3dd9 bd43c9b7 bc77a47a 3e2cad39 3d41d66e bd578c78 bda85164 3ce0ff43 3d75ad9d 3e3f2e1f be332637 ba8df983 bda74c70 3d6bb2e3 3cbfe7a2 3e27d980 3c0a6b31 3e0751d8 bde72bfd bc9e8001 bdcec7dc 3e6796af bbf1751b be4ed190 3bf4a5de 3df226f6 3d63a37b bcdc99a7 bd911104 3dc57ae4 3de2e8c1 3d613cb2 be276e34 3d286b7f bd9c408e 3cca17ff 3daf3e43 3ca91e6f 3f0f5119 bce3e0fe be27ec0a be1946ec bd71692d bd528688 bcb23b24 bd77b036 be31c9a7 bdc07e31 bd367cd3 beb02229 3d8dc7d7 3cba5af8 bd882269 bd804ef6 3d4c07e1 be714022 3de568ff 3e045fc7 be77f44d 3d17f488 3db50e0f 3ce858dc bd2efc1a 3bcd385b 3d517fb7 bd9d8c0e 3d58d1c4 be31610f bcefa6cb bcb3883c 3d9339cc bd79f03c 3dabb4da bf078be4 3dd22b23 bd22a057 bc9828ee 3cfaf1cb 3d9963b3 be2bcf94 3deb6425 3e1e8d8b 3d053136 be1c52eb 3d19fd82 bdae23fe 3d133864 3e059b89 3d68ddc0 3d6317a8 3d1dd35e 3d869808 bc54e025 bd9fe7ce bcde66ae 3d2a390a bd2fc8a3 bd894ad6 3eabc7f1 bd5ae6cd 3e00c405 bc14bd2f bf1485f5 3c0f13c0 3d091529 3e6d82fd 3d919c79 3c159c87 3dc33bdb 3d3e9686 3f0b361d bcfc6718 3d31171a 3e6e4f56 bd8501c4 3c00f12d bc8697dc 3cb5bfa4 bd726245 be4cd487 3e396dff bdbbd26e bddacde1 bc1a1f94 bb154eed 3d68ce31 bc344744 3ca4d06c be31168d 3cb028f8 3c830b53 3c7395a4 bdba096b 3d21a892 bc0ca553 3d995fb5 3cf8992a bde4e039 3db155c3 bdb201fb 3e324777 3c2b38fd bcd3f32c 3e703bb9 be4a90ef 3db4bf42 bd10fd5e bd89ebc2 bdd387cd 3c4a0229 bc740429 bd6189b6 bd3adfbd bdffef52 3db1c8b2 bdce23bd 3d86899b 3d3cc41d be25eeab be696a40 3e119b9e 3dff46cc bda48800 bb44415d bd1cec42 3c8a8b1a bd6aacbc bddb4bdf 3e0bcdbb bd7c47b4 be4eccf9 3ca42a12 3dc260ae bd85a9e6 3f35c1e8 bdf9aca1 3c054d07 3d62831e 3ac3f21e 3e0146d2 bcaefd7a bdee988f bc51941d 3e050461 bdddf320 3b4f5485 3dca3d54 3c1a803d bc331467 3d500428 bc808dc4 3e0b717b bd7d971a 3af10696 3c99f1a1 bc843c92 bc263e64 3dc88cc8 3e0033e6 bab51550 3c917b7e 3eb76fcd 3df99a34 bd88d5af 3da9d544 bdb29a75 bd027693 3e4b78ba bd6ca2ab bd1ec6b8 bdd547e2 3e5c320e bd77107f 3dc67819 3daf9ed6 bda7dfdb bbf21ac3 bb7b9352 bc2f5ded bcee6687 3d3f82d4 3d433e5e bd19281a bd8aa57e 3c9f237a bd33b751 3d4268a6 3c90f162 3d5cc65f 3d66e10a 3da04728 bd86c073 3da18f91 bcd2c861 bd104aaf be07b018 3d7464e2 3c902635 bd6e72ea 3b68a958 bd0c3050 bea6f492 bda7bc61 3c69a72d 3cdb7f71 bd635eb3 bda8208b 3c51dda3 bd860a20 3d9860d2 bded2487 3eedfbf3 3d0bbc0c 3e03b07f bd97bf5b 3e3b2321 3cfb81f2 bca4b194 bdc37cd9 bd719b96 3c064a62 3db60369 3d3a0082 be353610 3e99d9f0 bd87f737 bdb6f44d 3e0cdd61 3dd4cb11 3cf96b52 3dab7573 3d31c380 3d87f563 3dbb8e2f 3d207ff0 3dd6a23c bdfeb6a7 3cbdc832 bdb68e2a bcda7f41 bcd0f9f5 bc1c5bd0 3e3d9d59 bc56a200 bda534f4 3ec0ec45 3d91fff9 bb4acd42 bb8351d8 3e2cead6 bd44f2b9 bd0d469f 3e205af5 3ef9e450 bd39973c 3e9edfcf bcc405db 3d929b38 be1f38ad 3d9aa1f3 bd91fa52 3f0f6e13 bab30c4f bb44f353 be0821a6 be2b5dd3 3dfc75a2 3e213ff9 3efb8027 3d6fcb1c 3cfc4647 bde30c3f bd69a096 3bbc622a be0ca0e6 3d0a8bb6 3d870337 be0b2654 3d2bfa12 3bccb931 bd7630f1 3da81287 bdf36597 3d3b3eec bd11dff1 3c105039 3c0ab4e4 3dc4c904 bc6d7236 bd43c9bf 3d78e5f9 bce18c4e bdde3382 bd15f520 3dc92abd 3dd530ce be4470bd babf4a0f 3d7319c2 3d2b345c 3c08509c bd958663 bba785d9 3c3455b1 be457c67 3dfaed07 bd72836c bcbb0153 bd34f346 3db3fb18 3c8b59af bd5ea1b7 3ccff27f 3e5618a5 bcaff9cf bcf66b0b bd229ed9 bcac54cc bb12399a 3dc0b9ca bbf1d107 3cbce276 3d073b16 3cf2a411 bc238348 bb9e9f46 3ce733f1 3dfe39e8 3ca7b060 3ba00168 be831ad6 3e0612c1 bc0f78f7 bbd1b10e bd618019 3d672eb4 be1a673b 3e5c1fe0 bc0626e8 3d9db247 3e1a7775 be3e73a2 3ce5abbf be175f1a bcca5730 be4e6a13 be90d949 3d07d1d1 bc14996b 3e96eb91 bdaa3a2c bd1d274b 3e5e2abc 3c4f0fd5 bd855219 3d976811 3c994434 be8e12cd be1af169 bc42f753 3cb18fcc be59417d bdce956b 3e45b9bc 3de30565 3d7d834d 3d0eddf4 3af6198b bda283a7 bcc06ff9 3d478d29 3d53940b 3d79078d be81ff9c be236b76 bdb54571 3e6a7d29 3d3ebbc6 3e3f0a5c 3d49b875 bdb5e854 be29d695 3d23ac74 3bda825c 3eb6253b bdba4711 bc928742 bceca1f6 3d26fec5 bc607135 3ce1db62 bd2c2547 3ded5def bcea22f4 be4a6f5c be3f96fe be0847fe be497ddf baaa484a bde22fe3 bdf4377a 3df12a6c bd87a7a4 bb66690c bd068d71 3dadc94c bc49fb75 3cdc1910 bac1683b bda6a17d bd3773bc 3ea2e0dd bce0d65c bddae15b be097f32 3db5f05b be1b3073 be0efe85 3dd4121a bdffc4bd bdb8be02 be2ab5ac 3cce72ef be0f8234 bd97bf22 3d7a54d6 3eab78ca be238a43 bd609cbc bdc90df5 bcd60268 3e00a03b bdca4cd6 be198efb 3dfadb9a bc6de62e bca8d580 3d85ac28 bdd31364 bc5165b1 be137d5b 3d2be3bd bdec4c6a bd042e3e 3eaa9d38 3c78df5f bde61022 bd66d124 be4b8fa2 3d4eab17 3dcb097e 3d3cc34f be6bdb71 3d4163fc be3b8a8c bdba3716 bd31b59f 3de2fd61 bd8cb541 3bcf14ed bce98c52 3e0b1c10 bd969eba 3e2404d6 3daaa119 3c5a747c bddda1c0 3d9d703a 3d0ac51e bdebf322 3c05386c bcbcad81 3e711709 bc00a7e5 bca7c455 bc6c882b 3a8170ad bbbb3fbb bee121b5 3d6b2022 3c7e7631 3de7ff28 3d6a1221 bcb27c22 3cfe3105 3d8ba01e 3d42f32e 3dbc6cd3 3dcc9a09 bc458122 bdc151b5 3ebf2542 3d0bfda0 3e0d57c7 bd242e70 be9176c1 bd1f0886 3cbb9d2f 3ce9a77d 3d163d1a bd3b6675 bda9e40b 3d537d37 bc4c1f0e 3ca8a195 3de1983f 3e1e7a6f 3e32e604 3cd5f6c2 bc0eb598 be849444 3cf78277 3e4b5465 be450448 3c64f79e be11359e 3d80a7a5 3c5f4a87 be3917ef bd37d338 3ca19cd3 be925e68 bb388a12 3cf9655c 3d8234fe 3da579a9 3cf5473d be291ed1 3e0f6100 3e2f5158 be108750 bd06b075 3dd30e21 bd8e5499 bcd3af74 3d3abc46 be158018 3d7cd06c 3dfd48b8 3d8bacf0 bdce600e bdde8835 3b980418 bd856701 bc671839 bddb883d 3df6acea bd25234f be875641 3dd71bf0 3dacdb9f 3daa7016 bdde962a bda7f2a9 3d73cd78 3e3a8300 3d1e92fd bb40c431 3e8a3b99 3e490db4 bd08bb0f bd93b271 3e2012d3 bd20ded0 3c1d61a5 3b83f3e3 be46c6a1 3e89a17b bc941e0e bd1919d9 3e752f4f 3d9d23bb 3dd6e9a7 3e20326f bd9edd81 3de56144 3df91dff 3cd20be9 bdd1369d bde463e5 3d74a9d9 3d2c1782 3e86b3b6 3d7fda6b 3c01a8e9 be2412d6 bd143ac6 bdd26ed8 3dc33e1e bcbf9022 3da81842 be8819b0 bc2f0eef 3de35147 bd4fce09 3d9d6f54 3b458bbd bdfb4fd3 3dcbccaa 3d985ce4 3e0a54ac bd7e3913 bda92020 be6e6331 bcfbb725 3d09ad92 3e701143 3d8cd5ed 3e36478f 3d50b4d7 3ee8a323 bd9d607a 3e6a366e bdc81398 3da605dd 3e26c0ce bdbef31c 37128e10 bdde7001 3e17ce1f 3bb5bdaa bbe1e4a1 3e5aa256 3d2cc1e3 be0e729d be0c366b be09c784 bc126a49 bd4187ea bdbecf44 bdd2fb69 3dc058db 3e92478b 3d83926c 3e3692e0 bc51b5ca be292db6 ba9f9fb3 3d230213 bda80ac4 3ef6a5c3 be1e7cbc 3db136c5 3e024d52 3e536763 3d346b41 bb23a3b7 3e6d1c94 3d01c299 3e47d2e0 bcdac33f 3e2a4079 bdc165a5 bca9c40e be8bbd5a bc1a074a 3cf8e7c3 bd9e0606 be6aca20 bce13b01 3cfaa9cd 3e5f698f 3ee71515 3dcbef38 bdf189ab 3e1bf59b 3e0af3d9 3c94a897 bdbd6455 3d62231e bda06880 3f1570b7 3dd5eea4 3ca9f0b3 3e28e9ff bac4a3df bd520d78 bcaecd30 3edc87e3 be009af5 be268751 bb5e6c06 bdac77dc bdda63ad 3edd1657 3d58b516 bd9dca64 bd79b389 3d35f537 bd1dac78 3e8c5438 3dadc716 3e8fc092 3d6ab705 bd887f30 be5e47f9 bcd77e0b bd9e0e74 bd54cff5 3e13e52a 3e27a139 3d5fa526 3c737b2e bd9c133a bd4cf9ba bd56bc84 3ea1b232 bd97b5fb 3e80bc1d 3e06e355 bd631247 3d096968 3ecee619 bdcdeafc bd9c1d4c be1e0333 bd2039dd 3e36a439 3d918d10 bdfba56f 3e3580d1 3e497154 be0e8fa7 be0cc002 3d6b9112 be382fc7 3dd76f16 be121bf6 3caf83c4 be5f5d2d bd513a81 3cb0df16 3dd76f14 bd8b2f15 bd8e0afc 3d4a53ba 3e0e51ca bb0e5093 3dbae518 3ce173a3 be24b9a3 be8b7430 3d986de1 bda7a7ce bd64ddee 3c66e622 bdc81009 bdcb2eee bda74805 3db2b56a 3ead5288 3c03e0b7 bd41f40f beaca016 3d3b70fe bdbd5e0a 3a9c04aa be308563 be12bdd2 3e19722e bdf66e10 bd73c81e be8c08a7 3e3a3bc2 bd13b9c9 3e3f31c1 3d25f536 3d3edb1e 3edd3086 be0842bc bd29f9b1 bd505b1d 3e837a38 3d0f23c1 3e340c63 be21673a be0e1d31 bd66517d bd26bc0f 3dac8fae 3d5b8405 3e3c549a be3d7932 bc4f9417 bc9ca6b6 3d9eb05a 3e05d7c9 bd439d19 bb3614eb bc9fe59d 3e0b8beb 3e9bf0a2 3dcaaa9c 3c608175 3dde93aa 3e6204c6 bd37ceb2 bd96fca5 bd93cfef 3dd676d3 3d5e660d 3c311aa1 3d013fd2 3f42163a 3d770c1d 3dc508f1 3c3d9e85 bdc6f71c bd795304 3d12f289 bcbbcc6b bd6d53d1 bd9c4aec 3d86fa8a 3cc0f54f bddaa936 bdd493c9 bd09062e 3d4adb41 3c626ed5 bda86342 bc9631ee beada29f 3da80027 3e455cb6 bda3cbc3 baf82154 3e127fe1 bb868f41 bbf06974 3bf28829 bd9f4b9d 3dc7818f bd815136 3d950e7b 3d8565d8 bcc89445 3d88e50f 3d018c7c bd844fd6 bc897dd1 3d2491ca 3d339cba be023090 bb875d89 bd72aa06 3d2ed391 3bb16c02 bccb274e bd97e4f1 be65258f 3cfc7292 3ca6b0ef bdd1ca17 3e0026ee 3d329033 be39da9c 3d9046af bdf6ca8c be24c27d 3e13809a bdf148b2 bda2804b 3dfff1ef 3c887b12 bd500ec0 3da00cef bc8b42b4 bde715b2 be14c523 3de2cd21 bd352765 3d2792dd 3d11df13 3df250d0 bdc4f4fd 3be9db34 bcd10c35 bb976521 3dd5ce34 3c30739c 3d9b7aae 3d494bf2 bce400bb 3cfd5d98 bbc185c1 3cd9c012 bdd0061d bdb1fa65 bd8f0731 bde56c50 bca6b5f9 3db2bdd3 3c4adb38 bdc94e01 3d339943 3d9e661d bc2a97c4 3e666c97 3db3cba5 3de5dd86 bd1ef103 3bd3a761 3de011e0 3d7df289 3d8c933b bc90d72c bcc5ba39 3d39a808 3d0d57ac 3d2acc5e bd30a6fc bc990576 3ddcbea4 3e0bd9e7 bddd3916 bd66741a 3e62bca3 be3280db bbdc8761 3df46511 bce6c5a2 bc0c6926 bd919330 3d007b10 3d859ad6 bc57317c be1758eb 3e02bbc6 3c892fa3 3daa29c6 bd8c913e 3d31d528 bc6335e8 bdfacd80 3d5e81c4 3d681f48 3dc776e9 bd613f84 3de2c1fc bdd3b562 bc3fed15 3c3f0f80 3e4a117e 3cce89cf be0593f4 3e546813 3d557615 bd8b0d39 bdaa4813 3e3395e6 3d8d09a5 3d506439 3cae4b22 3e255b4d 3d02b02a 3d0a0c42 3d9b6f20 3e21034d 3d418189 3dbc7042 3d910f6d bd173f22 bd8b8fb7 3dd8eee5 bced6519 3ba4363d bd84a642 bddc372a bbecb2e4 be100f7d 3d40c686 3c6d8282 bd2c156d be0a007b be1efb64 3d0503ef bc1d6466 bd05fae8 3cac028f bdbcef66 3e05bdf6 bd57f3b7 be86247f 3d3e982e bb870736 3d06eb96 3e53181c be024fb0 bddfe969 3d84ad4a 3dfa7868 bccd5810 bdb82451 3d563b9b 3e354c93 bdb6e1f2 3d734583 bd1b69e7 3db57ab3 be088c15 3c9eacf0 3db23d0c 3db430b2 bc93326e 397558ec be158dfa 3d88877a be299b8e bbb474a5 3dfe565b 3c368a3c be325c79 3d3415b8 3f0651b0 bd953946 be2b32e3 3e6d8cea 3e02c404 bdf513b4 3dc6e3ec bb9622cd bdc4cace 3c9ad31b 3d84295d 3db96b5e 3d3f1977 3def1efe bdaf9490 be4d2f1d 3e05dccc bdb12fd5 bd0fc549 bd732601 bee26341 3e31d291 bb8a2455 bde092fe 3d8a6b73 3daa0748 3d3a46d5 be016bee bdeeaf26 3df04770 bd12c2a8 3dab6597 3b3c90c7 bddc1b2a 3ce442c0 3d012ecb 3dddb517 bdb8c642 be0eeb74 bd8ae947 3d628856 be416874 bdb32d85 3d105853 3e2050c6 3db0f2ef 3e2db6a1 3dfca61b bbb728ff bde21c20 3d8ecd5a 3ec906f1 bc9158bd bd5fb4af 3d4e5caf bdacb520 bda9873c bd2e4f0a bc8a45e4 3def67e2 bdf436f6 3e2cdf87 bd47be2b 3db227a7 3df0a63e be45c0d8 be04445f bd82e0db 3da978ae bcc3ed50 3dab6cbb 3e0ca36c 3e122e56 bd0192dd bd519c76 3c85fa1d 3d4d6eb2 bd931c35 bd905e7f 3e01cba4 be12fd0b bca7f1de bbc50c2a 3ce169fa 3e27783a bcef53bf 3dc0d1be 3e80dc00 bb289dd6 bd8012f1 bdd8600a be960242 bd889a72 bc9b36e7 38b5a397 3cc2e7d0 3e2dc9c0 3d0bb920 be87e59f 3d66bcb1 bd24b315 be835cac 3d34349e b9e42326 bcb2db08 3e6f27cf 3de051b3 bd64c833 3d12b58b 3c6f4bdd bdfe029b be46f5ac bcb27298 3b8c5547 3b80cc0e bca19a0b be9f5647 be493830 3e35be41 be20d01a be82d7e6 3da7c7c1 3d5a8358 be82b525 3e6f6b0c bd2178b0 3dad8340 bdebe203 bcee282a be27f4c1 be003dfd bde7ad93 3d0d30cc 3d12fd77 be073079 3d38f2e4 be2549f4 bc85fbbb 3db94846 bdb33b1f 3e4db98c 3d2331c9 3e87b543 3d96c28b 3d9ee5ad 3e30e4e8 3d7e1d9c 3d660cf7 be11617c bd2fa842 3d593540 bd99b599 be34aa55 3d8b45b9 be5aed50 3d2a052c bcc8a06c bd88016c bd584f50 bcdc9982 3d0444ec 3c95ac3f bbae2eec bdf8675b 3d8db2c3 bd661443 bd248c61 bc95aaf6 beada748 bcfc8496 3dbe4b76 beb16043 3e783583 3d1f9a77 bc7544a0 bc96970f 3dd4acd6 bc8da35a 3d32fdfd be02a963 3ccc9ef5 be53b750 bd4f50b3 3eaff86e 3d68879b bede7613 3d8eb765 bc1e1fe3 bb39621c bd94665f bcd0a7fb bd6b5118 bd270985 3ca6afde 3d94235e bd1eee77 3ddefe52 3d3bf286 3d0f501a 3d850cfa bdca07c7 bd811acc 3ca446e5 bdc9395f 3ce39f6e 3d451be6 bb03a550 3bc586ea 3cd1175d 3db12494 bd4ab1cc bea4a79c bdaca093 3d191867 bd01df02 bd134c52 bde966c6 be402750 3cd5b216 3db9a8da 3d24037e bdc17a09 bd08211e be5e7a07 bd3fc595 3cc9115e 3e1b8f2d 3c0f960a 3c089676 be1abead be2c182e 3d80f983 bd9b12c7 3d91e9c2 bd30f3d9 becd513f 3da50ee1 bd2a94b8 bcfab666 3cb600dd bdaa0817 bc96d0b3 be12d7b2 bd560864 be9617b9 3cf1649d bd6df37c bd736d2f bda3dcd5 3dcbf49d be18a41f be170096 be97fbdd bd8d0a78 3daddc5a 3dae708e be0f2b94 be1ac4ac be46f69c 3bedbd7a 3e9297cb 3df6c2f2 3d027aa8 3d659b4b bdfcb722 3d9fbcbf 3dd67e97 bd057efb bcef4c74 3bed2bce bd7920f4 bd2c1a27 3db854b2 3f08d8b0 bd62c1ef bdf4b639 bd37e340 3d9eef91 bcd432cf 3b9aa2fd bd8917b6 3e12e191 3d153758 3e158943 3e44b0f0 3c95dd97 bdb9bbbc bde18c7f 3d9f2eb2 bd383398 3e543999 3dca28c4 3cd41a6a 3d8e5091 bd4adc22 3e1533f3 bda8d414 3e10c651 3d01e200 3e5b5fb1 3e18b031 3cc42ed4 3c4d6118 3dc2036a bd06fd29 3d981548 be005c78 bd82df70 3dcc456b 3e7e1a77 3db1bca2 bd2705bf bdcc3e86 bbf0bf91 3c34583f 3dd64165 3d7270cf bdba71d3 3dca9d27 3d15738d 3da0936a 3d7fed6d 3e0b404f bd1630c0 be051fbc bd2da48a bd9306b5 bcb8c389 bc27312f 3d5435d3 3d092e1b be4fea1b 3de84106 bc535dd6 bd6a7777 3df0b6dc 3d8113ba 3ce1ab3b 3d521a3d 3c208b43 3e25245b 3c913a9b 3ca23eae 3d131d0c bd134e8a bc738c2b 3cc9e4d6 3dfabadf 3e147e1a bda24460 bda5ea3c 3de3010f 3d8b00d3 bdfd0092 3e519498 bea96d01 be90d7e3 bde81404 bd96e56d be366924 bd74e719 3e62775e 3eacaaf4 bdd33b43 bef39e3c be025f9e 3e0bbd4a bd94700b 3d973949 bcf38eb3 3dea80d3 3e36716b be89a7f1 3d792636 3ac0ff32 bc9dcbd8 3bd9c9c8 bcc6f864 be35b64f bda3c314 bad2cace 3da66a2f 3ddd8f7e be8e45a5 3d41fb03 3d394804 be51afdc 3d25b1df bbfe915f 3cd8078a bcd82f84 3d0d181f bddbd484 3e482b64 3db2554f 3c89daf7 3e846199 be2a7b0a 3e800d2f bde19748 3e07dffd 3e001b67 bd5e2ff0 bdbe600e be1b8676 3e307425 3cb9fffa 3c9722f9 3d3e8b54 3de82897 bbe92fb6 3e3e2395 be2b70eb bc3a9096 bd188360 bd9692ff bdb2c68e 3ca2eb13 bd124870 bd7be196 bc423afc bda6a499 be1d1482 3e1da3d0 3c6379a0 bc86b385 3e0984db be1749c4 3ed7ea79 be2a2485 bd4355f2 bbebca2e be0d7f6f 3e014b3e be596b35 3d0e7188 3e3f7c3e ba95bd05 3cc4010d bd452741 be4edb0c be4d3ac7 be61d59b 3dc57513 be8e592c 3d52d913 bcaf6bb6 be34e248 bdce4600 bdec6ff0 3d3b4619 bd2e48c1 3de8cbed bd8ecc37 3d72327b bc09b0b0 be2cf597 3dd0f8f5 3d886639 3d9853f8 3c4b519f bc709394 3e0e0614 bd1f4705 3e348a90 bebe8872 3c1f83c0 be1baa6a 3dc05b5b bc33999f 3cc60356 bda2b1c2 be1c08ba 3bd5990c 3d97d35b be4267c3 be1b671b 3d800fa2 be176397 be35cb60 3e50771f 3e92d4b2 bda567df 3e9cfc79 be9a58fa be122bca bcb766ac bd9e2f6b 3cfb913f 3e5fb2c4 be7f85b6 be0a21f4 bd50a41c 3e692369 bd1b3480 3c72bb8e 3e1d94ba bab1706e 3db0dd45 bd5529ca 3e4129b4 be02ca7c bbef0617 bb9257eb bd784e31 3d8f7170 be6c0a0a 3dcb0673 3d3c0440 be020b07 3a8d10bb 3dd5d072 3e2c6efe be47ea18 3d105709 bd5b99bb 3d8d4133 be96e630 bdaef517 3cfbdad1 bd754bc9 bd9ac8c9 3dae4591 3d8a072f 3e2d1a26 3c53d0a7 bdfdf0b4 3d39347f 3d16df12 3c4ec8fe 3e0c5800 bc5dad49 3e976665 3d1a1ed2 3d8575a5 3de8f94e bcc5025e be95775b 3e16ca6a 3cea7ec6 bcdde36f 3c914f27 bc5fc707 bd9fb93f 3d79c26f 39ab1ea5 3c2cef1d be3a3135 bd143d74 bc0d9892 3d6db13c bbee65e0 3e2fda1d 3dd02bbc 3b00bc72 bc377c17 bdeeb1bf bdd40f59 3e18809b 3c82cd90 bbce2ca2 be4c0886 be09e882 bd5fc27c bcd77772 bd39f2fc 3ded5783 3db94f01 3d81f2dd 3e59ed1e bc916bea 3c1d54b4 ba6498aa 3e291a76 bc286034 bd13082c bd4b13e1 bc5e1779 3e961a9c 3c16e576 3e32f326 3d44768a 3d28494c bd31c2da 3ee4901e bce4e13c bd49ef41 3e1cb86f 3e0917e6 bdadbc43 bcc3d7cc bc56f2e4 be899f42 3d287fe7 bafa8366 3d559547 3c97e3b8 3d962b3a bcb52d99 bdba2e76 3d8a5a6a 3d7f2ccd 3e4d4764 bb9dd5ae bdcedf24 bd933eb2 3d85115d 3e41b503 3d9f5b15 3e247df8 3e515f73 3e0325d9 3d73b062 3e45f51b bd4d674d 3db50be4 3d376ec0 3e4d3eef 3d373db3 3d9634bf be3de396 3de9bf91 3e2de508 3d45780d 3dc2e0aa bd521347 bd880cd3 3dd7653d 3ec02439 bb1a1fa6 3d837725 ba20f8a5 3d79c667 bb8ad834 3e6bc97f be8ecc07 3dd17d32 3e27b1f8 3d2737ee 3dd823fb 3dbd6cbb 3e1fda11 3e4263b3 3e054d7d 3df2a46b 3e9b6476 3d39b944 bc8c5d68 3d3ffcea 3e4f841b 3e4b7598 3de14e53 3d842a4d bc25802e 3e75ac70 3deacf10 bdfab26f bec28c18 3db446dd bdffadf1 3e13979e 3e64c5f1 bbbf7e39 3dc7b2d2 3de4637b bdd73d8a bb611841 bc8443e1 bd8fafc4 3d914a3e bd04123b bce76c62 3c9da3df 3d85ac73 3dd695f2 3d6163fb 3b9f5694 be154762 bd94e3c9 bdc096f5 bcb1fc23 bdd22f42 bdd56f5d 3cb8c44b 3e18f9e6 bd0b4fc1 3e2cdbc5 3e43fc2e 3bfe7d06 bdcc9d94 bd399f8a be955989 3dc86208 3e32a4a9 bd9f18a3 3d5380ef bdab020a 3e009d75 3eb0d680 bec55e49 be2e49c2 be41de02 3e0d4111 be1af72b 3c18aaa6 bcf6c89c b952c6ed 3d560f5e 3d8141d9 bd6a2329 bd500e28 3d973b3e 3c36333c bde4c2e0 3d260ff7 bd80ec00 bddfc4d7 3eed452e 3da27561 3d8eb7a6 be331fa7 be1452d8 bd252837 3da4dfe9 bd9ea713 be0a11f9 3dfc27db 3d492580 bdbe23e6 be191b07 beb85b2c 3d1f859e bd148b51 3d96e871 bcb00233 be00bd59 3d189f30 be1c92ab be0e939d 3dcd8918 3d944f20 bdc645d3 bd08c18c 3dcb3392 3d73e53e bb5bdab1 3bc92c31 becabaef 3e17cae2 bdf462bf 3d817594 3bf4888d 3d53da38 3d4a719a bdb70bc7 3e0f614b bd8a7f0a 3c4c150a bd2fea51 3dfb0de1 3e083eaa be4142dd bccca375 3d16984c 3dbbed3f 3c22e13e 3de4ed56 bbfa5d16 be17d923 3b6136a1 be235939 3d81001e be3faab0 3df09f5a 3964728d 3e2ce68a 3c2089cd bd84a6a2 3e13bf0b 3ea74718 bdd5932f be1c84cc 3c5803f9 bc0d7174 be706606 bd900a86 3df2cb52 3d994ce9 3d854a72 bd408fd5 bd0ac44a be15935c 3d95a0c4 3d719663 bcbbdf79 3d83943f bdb2ca6d 3e1fccd9 3e84627d bed3f644 be1d70ad bdc214d1 3d6a4669 3d0985b1 3e15f64d 3d2595cd 3a93b662 be13a1da 3b7f075f be31df8f be3c590b 3c8e45d4 be206b6e bce07321 3da64d37 3ddd1e2b 3d63b5af 3ce65903 be0b0135 bc0d6fe1 be52097d 3cfcf9ac 3e544168 3d86e981 bd32d780 bd126ca4 bdbc01db 3e4b9a8d be99855a be09f60d 3e13989f be161d23 bd723c81 bca14e6d 3db85a82 bb947784 bded9eb0 3e7b365e bce152b4 3db629df be388350 be314e5a bd28d262 bc83cecb be27a494 3e067c85 3d5b777c 3ce2bbae bd9e3902 3de10334 3eaeb9ac bd6d7afd bda6c0f7 be0282cd 3da59048 bdffacef 3d993449 3cec4a7e 3d27995c bda7d0e7 3cd9224b 3d31ee07 3d74bbc5 3e818e36 be5c6be2 3b8e4d8f bdee5a57 be811ce8 3c59ad03 bcb74054 bd3bfe00 bdac7e20 bca9220f be0587d9 3da14ce7 3cd91f75 bdca877a be55cf0e bdae1667 bc9cdb61 bc102d67 bdb9e66e 3d7aff69 3e1f67fb 3e50d5e4 bd739c01 be82f992 3d04efc0 3d93f070 3e2b562f 3e15e312 bd2fa7b5 3e044c40 3db485dc 3ca7f8a4 be0fa7c8 3d39cc4a 3d15201b bdf33d1d 3c86231a 3cf344e9 be499482 3ef0b40c 3d45988b bd87f465 be6144b3 be5383a7 bd833d0f beabcf37 bdb894dc 3da94276 bdc75b6b bc66e508 be35cfbb bbf5c4e7 3dc5b1e3 3b812f07 bcc88d4f bcdd3fae 3d4bf009 bdce3494 3cfea8f0 3dab0665 3d68b2ab bdf9e970 bd9227aa bced3357 be914378 3ca2d2a3 bd3619ac 3eb57477 bd97f58a be57ae99 bd6f22ae be156447 bda0163c 3d20645e bd70cea4 3e442256 bdb89828 be8a3a8e bd01be4b 3e623f5f 3e6161e5 3dbcf43e bc3ba7a1 bd9e621f bd34543e 3e76d74b be2abd83 3d72c701 bdf0f978 3bfa6e51 3dbbdf3f bdbb15df 3ed28c30 be2d2cf0 3df457a7 3cbf58e0 bdeb8070 bcb1918a be13f7a4 bd90c30b bbe0eddd be009be6 3c986c7c be19a9f6 3d1c19b7 bd0aa40e 3e2b00fd 3ce9045f 3d350b59 3d88be67 bda83b33 3db94865 3cc4e17f bd15593f bed3c237 3d156740 3de7f450 3d01806a 3dcbadc5 bccfdb77 bd94883c 3e4b91a0 beb19d6e be1a67c4 bde1d734 bc788920 bd92c729 bdbb2ed2 3dfbcade bd99ec47 bba65e10 3d3811b7 3da8aaff 3d0ccb83 3df00085 bd8c6c83 3deaeab3 3f17e30a bd98ff4a 3d52f144 3eba58ea bd50b9a2 bc4a2eb7 3de8dc49 be0fa470 3a415f11 be0d5835 be37adcf 3d2dbd50 bc9416bb 3ea56dd9 bc6b7679 be540682 bc8964d8 3e3f820a bdc15aad bbe41b3d bc722223 be2bafef 3ca0f408 3dc90ac3 bd3c9bfe bde55495 bbdc55cf bb61291c bdb3dc48 3cd214d6 3e0d3242 bd8f2fb4 be077520 bd24e0be baa73773 be1cf36f be2c1d90 bbb60436 3dd4f236 3dae6bd4 bdac8c24 3d55b9a9 bd4b64d9 bdb574d1 bd11a508 bd42daae 3d842e09 3d1a15df 3c9978b5 bd96c98b be75686a 3cf7d79d bdc8e054 bc35d690 3dadd7c9 3e702577 bd985b36 bcd4633a 3d5bd6ea 3cd61e30 bb398312 3c21f133 3d157c8b 3de794d7 3f228e1d bdc11cc8 bc88e426 3e7befe6 bbd15f2b 3d16030c be0ee631 be13d85c bd99de66 bdec6318 3d067a02 3c9245c4 3c5d7dab bcc69388 bc790b20 3e18c16e 3c7e20cc bd62ae3d bd2aa402 3d5a22fa bd8291fa bbd55b18 bdb223c7 bdeb0321 bd3069c7 ba68d886 3aeb44bc be456f72 3d9b8021 3d2b91e1 be1395a6 bd2a8708 bd5d4dcb bc8c18f7 3e2e99f8 3d70d3b4 bda8c2d6 3d9b8f5e 3c4dd718 bda43aa2 3e3e077f 3c632398 bb2b9860 3e56642c bd47d23d 3c3a43d5 bd499217 3c126775 bd5de491 3cd1f052 bdd792c1 be07a631 bd957195 3cd15f74 3dbed78d bd0fd40b 3e2a953b bcbdeafc bdf5eb72 3ddb8267 bdf73873 3d933cb8 3c79e516 3c01ba9a bd6f0f82 3e20a788 bc18351e 3d0aa7b3 3d4b3d46 bca36ae9 be002b56 bce88f92 3e091afb bd7361d6 3db65e0c 3dbf588f 3e390bb7 bd68ee2e 3dd9cf1d bccd65a4 bde6f064 3dc5520e 3e249d7b 3e8a7f2a 3c8c88b5 3c6c55e0 3d851c73 bd8fa1e9 3d0379e7 3b85dfaa be378ba9 bdb5658c bd733047 bc2e4b16 3be49cc8 3d3b5049 bcc04236 bd328e5a bda16562 bcbe5f9b 3e238582 3d9a6a3b 3d65e643 bd04291d bd7694f5 3d4464b1 3d16111b 3e0221a0 bb1d257f bd214647 3d41d9d3 bdb72cb6 3e3705ba bd2bf83f 3d962a40 3de7d492 bdf89450 3cf2d9d1 3e23ad13 bdad605c 3c3bb586 bde275c7 bcc30d00 be378b39 bdbaacaa 3ca3272a bd8ab695 bde73d7f 3d1ea71d bd1c4854 3e11c087 3e41c86e 3e2b5913 bdaefb28 bd1ed5fa be7c2784 bdbd8636 be3a063b 3d967506 3de1c21b bd0d2920 bdada30f bdb47088 3d90e267 beac0637 bd5dfdfd 3d931cad bcb3bbf4 be193051 bd76ad45 bc63a929 bd5ad512 be1541af be772700 be76333f be455e0d 3d8580d0 bd860f14 bd651f48 bd883eef 3d4bc2c2 bd8d95cf 3d1de7d2 3d6045b7 3beaeb60 3d911623 3d6c0700 bd9243af 3ab1be7a 3e771de3 bd910765 3e9172db be15e17d bd389995 bdeb1e73 bda27bf6 3d3cfe90 be59edc5 3d2db26d 3e0e77b5 3d438c7b 3d826c10 3e11410b bd860ba3 bca27203 be08bfe3 3c3be105 bd9d94cd 3e014868 be4afdec bcc6b78c bd054cb7 3ea02c35 3d9be6f6 3d82f796 3f10963b bd1f5704 bccf6986 bd478806 3d49e2a8 bcc2fc65 be0e25f8 bd13fd86 3dea9d82 bd44181a bb7ee692 bc8af1da bddb947f 3c80c3f3 3ee124b9 3d1c6377 bcb62707 be18e100 3d27d849 bcf44902 bcea7ccf bd418754 3cbc6c95 be84b718 bd7b99e2 3e1c6a26 3bb57365 3c5938af 3da2849d 3ddebf40 bcdbdb71 3db1e2d1 bedd1f27 3dea3db7 3c929320 bdf5762b bd64aae1 3e408559 bdfd5d9f 3d617b46 3e1fa5b7 3d377aac 3c7e8cd1 bd997feb be351ad7 bbd24e48 bd9029e0 3e02050f 3cab5add 3d31cbfe bcc3b141 bd1cadba 3ec79c4f be197dc0 3e000095 3e3671ad 3dfd1c2e 3e98bbb3 3da6b507 bc9ee460 bda00a77 3d62999b 3d4fda52 3d24e7d3 3c7fadae bd3e6296 bd346c33 3d9814eb 3c1f33b2 be188aa1 3da44528 bd6cf9ae bd28bf96 be542727 3c28b9ff 3d105755 3d8b938b bd100819 bd4756a2 3eb12c77 beec2258 be39b431 bd2db549 3d877a71 3d697d35 3d6f4c7d 3de6e263 3d4c9f38 bbdbdfb2 3db484dd 3ece3f32 3e10f346 3d4489b0 3d38300c bdd531a8 be039019 bd927001 bd1ec93a bda24ab8 3dc31844 bd6038bc 3e5440b9 3e33529f 3b0bcc05 3cb815c2 3d0f794f 3bd4e65b bd800c91 be2a55d2 bed6e668 bd72093c bd7ed4de 3c4be896 bacdde3d 3d03f497 bde191a7 3c73f258 3cfbcccf 3e4416d6 baca3805 be4dbb2c 3e25df6b bcab3ef5 bc5919ab bd85a16b 3c8d1051 bcb6207e bd82e3f2 bc487dd3 be308936 be53f54c 3d8d2034 3dc9f2ed be9ab0c3 bdd339f5 bd146689 3d405d90 bdb0860e bdbfa875 be401706 bd682007 bd9b666b 3de89b69 bdcc6c26 bb0601f9 bb724358 3ede91da bd8ff3b1 3d71c1bb bdbeba6b bdf4df7a 3cefbb48 be9a1a78 3ce7118f be065f4c bd893ee7 bd30c74d bccf2323 bef7215e 3d4300e3 3d419007 be8833f3 3d743214 3c5e2d72 3df79d88 3d4c04ad bd25de1e be1d65fc bd015e55 bd2706b8 bec4540f 3d034ee2 3e4edeba ba57afab bda305be 3c3c5c1a bc8b6459 bd1392c2 3dd00da4 bcc9be61 3df0a05a bd0b4247 3d759593 bd6276e5 3de3b36b bd0f41e2 bd6c5326 bd6a2ff1 3d48f7d6 b81c55f2 bd0a3469 3d98fc21 3d332c2d 3dcfa257 be130259 bdb9f05e bd85aa4b 3d5babe7 3d8bac9b be800760 bb441d08 bc8484e1 3d6a1aa1 bd413e9e bdc820f6 3dc9c13e 3d1b48ee be5ccd85 3afc8c1d 3e8706f9 3c1d5297 bdeae6e6 3ebae675 3ed94841 3d7b7fbe 3c72dee7 3e6bdbbe 3ce29d8a 3dfebe0e bd92a5d5 3d28f7b1 3b1d8580 3e201a1c 3db5aff2 3d99419b 3da7d37a 3aaae192 3c231740 3c8182e6 bda131c6 bdd58c62 bd4f1ca6 3c1940eb be78752c 3e2857be 3d2f4fd3 3d841248 bc934028 be0f98de bc9c326b 3cbd4522 bca95f5a bd56bf9d bd41a607 3dc637c5 bc2957a3 bc8450fd bc2155b3 3ca6af09 bcc8d4eb bd2d7c45 3dd73b29 bd8dbca1 3d97da67 3d3e1cd8 3d0c5dc1 bd7e6a4f 3be05178 3c3ecc19 bd2ef6d7 389ecf35 3bc855bf beafc8c7 3e6b8ad0 bd4240a6 bdbc601d 3d6ffda0 3d2629e3 bd675d7b bd7a9a46 3d8af259 3cdc5921 3ba4b837 3e190046 bdd6c045 bc10bb37 3d2f038d bd6e7569 3ad306d2 bd262621 ba08f582 3e109744 bc9e7e7c 3d40f128 3d52e1ca 3e82098f 3c5966ab 3da8615e bbb4b667 3b013cda 3db6d21b 3c5469f9 bde44053 be866ae2 bbd0c549 bd0e3f7a bd3da7e5 3c815bd9 bd5e5c87 bb85bb55 bde97bc4 be1d586e bdc133c0 3e3fd638 3e2ed29c 3e180a09 3d0eeb83 bc8fb9dd bcacc698 be947ef0 bd8abbbd be045135 bd0f2895 bdf69fc5 be3da3c4 3d744f4b bd88da20 bba64688 bea14063 3e82c160 bd4e4ff5 3ebe013b bd26a383 be6e23dc be96e53a bde31503 be8d9e9f 3d1e39e6 3d1450e9 3c984f27 bde00244 be602fa2 bdab45f2 3d193919 3d95c9ab bdea6e8b be1a3247 3c007a68 bdd51a1f 3c77c929 be7a0fb4 bd8ee167 bcb799ba bdd19ad8 be46fa19 bd9404f0 3bf66544 be2ec4d4 3df7b363 3e143513 3b461ea2 3e0a0e70 be3af703 bea1582a bd254389 3e93e038 bd79752a 3dd50765 3e05edc9 3965963c 3ddc2006 bde862bd be8fc77c 3dd4c511 3d22659b bda3c8ae bd620a75 be48afc2 3e8393b2 be81b5b7 bd4fdf84 3d8c00ad bdbe7a91 3dd0be6a bd93cadb bd03d7e7 3e4523ea 3df931e0 3d98663d bd923009 bc2e58d6 bddf965b 3e782d15 be93a3d1 bc7f849c be19c7f0 3e227f76 be0d981e 3d92ab27 3c840f42 bd9b84f8 3d77109f bd71266f 3d250eaa bd4a2806 3e8e11e9 bd99fadf 3e0cbf0d bbc3ca3d 3e56dec4 be223787 bd0d59d1 3cc0c6a0 3dcd3106 3e0a83b1 bdc5aa6e 3b88ba05 be446954 3bcc481f bddb5056 be092c54 bda29f19 bd7515c8 bd5494c7 3ceaea7c 3c97b04e bd68f642 3e44fc0e bda93dc6 bdd22069 3d12a5ef 3d9a386a bdfe2009 3e56e98f 3ca40d88 be3a2dae 3d40b576 be05c5b2 3db7703a 3c671529 be864a27 3ce2559d 3d867819 bc284809 3d4bcd33 3d835067 bdeb50ca bd180bc2 bd5b2946 3bfa720e 3cbf6add 3cb21c47 be678a36 3cfb876e bc8fd638 3da0c25c bd45def5 3e263cd8 bce1fb93 3e2629ef bd2b4edd 3d890eda bdbb0baa 3bdf8528 bdbc2594 bd48e908 bd9f57e0 be5f731a bd6f36cc bd1fcb58 bdd4d2f0 3d27a574 bc015049 bb9b726f bdbe7117 bcda480b bd78e489 3d0834d5 bd77a700 be316d36 3d301eb1 3da2c0d9 bd436529 3dc8b01f 3d5bc6ad bdccc6cf 3d3f622e bce3f3ee bda8cf1c 3e54dd89 bdee6139 bd81b83c 3d843ea2 3e233ded bd34bab5 3e3807a8 3dec928f bb9fea34 3a98f1ec bd903749 bd4169ac 3d12b16b bd671bc3 bea522a1 3e3a243f bd88b5b7 3de6fc06 3ceef8a9 bdba56cc bc3ad4e4 3ebaca4b beb24f1b be26261c 3e875e06 3bc6faff 3def0c86 bdc98a54 bd307433 bc517b26 3dc06f35 bec10d57 3d041be6 3b580ac7 be93b2b0 3cbd40fb 3c8f270e bc314664 be5c7e6d bc87a790 3e5e35df 3dd4af4d bdc9f7ab be5365b7 bed379a9 3d928a8a bc053bc0 3d1dbbe4 3c7d9c6b 3e09c6d8 bddb0d32 bd60b9a1 be99355a bbb462b9 3e56faec 3d17ebb9 be073271 bcb2a8f4 bb12b859 bd8e4e07 3e8ac9bc bcf39cb2 3db33ee9 bd54baba be4b4133 3d9bbf7b be9e0ebb be257c14 3d4c8d0e be1c7861 3c229ace 3d3ceb5c be4d8bf3 3d9635f6 3d9d1f22 bd148f94 be6aa35b bde3c748 3c52bfb5 3d9ebcce 3d227a78 3d8db2d6 3e9e4ea2 3c9d8d01 bd91bd11 3e2a616a bd83f452 bd91695e 3e22ef67 bdf63181 3d9a6dd1 3c013457 3c89ee09 3cf706b9 3c187693 3d7ff39b 3c93dc5a bc608248 be3aa160 bdb9a052 3cedcf25 3d02294d be33e1eb 3d9c12d8 3d9a0ab3 3d3bbc01 3c5eaf47 3df0bfbb bd702df3 3b8c2be6 3da33765 bd8b5e91 3e37e1bb be1169ac 3d7964e4 3e23318e bc9bba6c bdc9d517 3dd82c87 3df056f3 bde1b5a9 bc722a68 3e3a241d bd5c5e99 3d0db7a9 bd69e648 3d39bc72 3d70969d bca64440 3da6e509 bd29ee96 bd69b2c4 bd2a4283 bd055436 3cc099b1 bce67e0b bdf9e6e4 3d9eecbb 3d82cf21 3a10181a bd8e8c3a bdfae65e bddd0ade bddc407e 3d5f8672 3d82a9c7 3de44b54 3d3483a8 bc7e89cd 3e0e5caf 3dc45052 3dca8519 3d503915 bdc0cb3a 3d0c7f03 3cab5e2a bdc8e9cf 3cdb1e55 bcf4d1d4 bdad0a76 3d36df3f bd34ffd4 be95a8fc be64a24c 3d0389cd 3cd9bd8f be368022 be0ab55d 3eab4a73 3c8e39c5 bc8f5381 bdca2033 bd5e22fa 3c508852 bc4a9fbe bc17fb6d 3c28e195 bd97c881 3cfed547 3d52e4a6 bc623c12 3dcb1be5 bf114928 bd34e572 bdbfb2d3 bd8271b7 bda80695 3cc56672 3e093dd9 bd3c8261 3dc1b4ee be71c035 3ddfef13 be004336 3d88492b 3cf012cc 3dcb8ae3 3ca8ced3 3db8c8df bd394db0 bdaf5589 3c9eab12 3f11c7a9 bdaa2c08 bca50fa3 3e02a4e0 3df82d3e bd8bee71 bd73d91d bd1ad3fb 3c9e2675 bd2018ea bc9a14f8 3d618477 3c8a86f2 3d3b4089 bda30234 3c7d2514 bd50f26a bdb9f724 bd384ef6 3ce57925 bbf569a8 bc8e868b 3d920055 bc995072 bdba50b7 3bf7b99a bd22c6e4 3ccd2db9 bd5fb096 bce25b1c bb5d3511 bcdef321 3de13867 bd4f097f bd78728a 3b35f084 3c4be1ab bcae6333 bd862c05 3dde6d6d bcc6ca7d bd253d5f 37bc6999 3c90280a bf077ce7 ba596c93 3dcfece9 bd673c79 bcd40809 3c75bc17 bd8e3b97 bae22faf bcbbaad6 bcb84997 bd396c89 bd9929d5 3e04c67e bd2def92 3cfcc352 bd9cae89 3d9662a1 38aabc1f bbcfe2f2 3e0e4fde 3eb340d8 3e225ddc 3c571da0 3e371b98 3d061b0f bd5d9893 3ceff4ca 3e10b1d2 bcb23cde bb948250 3dca2bb2 be7806bd bd126a4f bd9c052a bc3bb328 b9ab5973 3c539092 3b1b87b6 3c633cd3 bc0a7081 bd1b5bf5 3c1891c6 3d66fab1 bd36c037 3dda28cc bd881a34 bc8c6bb5 bd133176 3deaae60 bde2629a bd919dd4 bdd4f6a2 bdbdc843 3d2d31d0 3d5073f9 3c564558 3e0d9266 3d5e39c4 bdd27e20 be39c2cf bd20041c bddec1d3 3e2ba74f 3cc8b92c be2ed768 3de35c1b bceb8f02 bca6f68e bd5029f7 3d35ddf8 bd429273 3e12d4d0 bcde07e7 bc37fd5f 3e0fbb6a bd8e686d bdaf23c2 bda0c2c7 3dfd1ea9 3de33ee9 3e6a3bfe 3d7cfd5d 3e1fc4ad bd1210c6 be16731d bd502986 3de06f8c 3e657e33 bb011603 bdd554f2 3dee1062 be169e07 bd97cda0 3c835ce1 bdc0eb0b be4cb8ed 3e65706f bd0e26dc bd59e5c3 3da8173e bcd13f75 be290937 3d7009ca ba94875b bdc99d36 3e845d33 bd969f30 bce080e4 bb66c6e1 3e12c427 bc32cd30 3b7c4584 3d712405 3cf2ab44 bd52e3c9 3d416887 bdd42159 3df32161 3d148d4a bd028e7f bcb20064 be29c15d be089e34 be8468d7 bc4170b8 bd673f79 bcb63e0c 3dc77bc1 be1237ff 3d45775b 3e75678d 3dd368a0 bdcaf705 3e17cbf4 be84b9f8 bd801615 3d4d0375 3dcc954f 3e7bfe21 bdb8d0c8 3e714c40 bd0dcf40 bcaaa7e6 bba38507 bc87e038 be042fe4 bd11090c bdfb5d1e bd57e02f 3cc95012 3d128d8c bd8eabdb 3d00bb07 bdb0058c bd6d881d 3e9fdaa8 be08f5dd be4f5e31 3db56aaa bdc6d6e7 bd9da0e4 3d9b6412 3e2e8cf3 3e823d9b 3e8c6a24 3df979df 3c447ee5 bb8988c2 bdcca36f bd761ff0 3d9f03e6 bd820e6a bc03b839 bdb1dfde 3f03dfe4 3d976171 bd376a49 bc97d6fb 3d5aafef 3d50299c 3daa6ebe 3e3250f6 3e1fbaef 3d5fd012 3e432d94 bdbe7226 3dbc6995 be05cc81 be91f2c1 3df35ed9 3df847fb bd2ac648 3e22124a 3eb73376 bd61beaa 3d9211aa bd9c082e bdb4b0a0 3d533c5c be0ca86e 3cecea3c bdb26013 bddb0873 bca4f891 be1bccd8 be95fa9a bd7fdbfb 3ce2dd9e bc8ad17b be1d8c68 3e4b403b be14e569 3dc4ccba bc0c0786 be3c567f 3e2a9d36 be8afd25 3dcedf28 be15c765 bc6f0142 bdaef780 3d02711d 3e1062da bd547441 be50cff6 be19386e be3091f6 bcb7c499 b977c403 bc921b4a bbe88d05 be03d8d7 3e036530 be79888c 3d740bfa bc5fdf51 be230050 bdf59e15 beae45cc 3e80da22 bdb849f4 bddf025b 3e3dd2ec be2f4502 be3df6ac 3de0d9f7 bdcec2e8 3da81057 be0ea109 3d4ae2e7 3cfba932 3e9875e4 3e8d928a b80a3f9d bb9f9117 3b22751d 3d973a68 bddbe971 bc41911f 3dc3a3c2 bc2d7132 bda8925d 3e45dd4e bdd3d2f0 bd77063a bd4c720b be731931 3c05d69e be1bb7c1 3d83dbce bd17b371 bd35906d 3e288b3e 3cc9230f be0054fa 3e18f130 bd0651ac bea67924 3dee9fc2 3d10a383 bdda32b3 bd2d212e 3d0ab060 bd1b7b5b 3d8ecac4 bd530e45 3db66292 3e942484 bbcbffb0 bd080ed4 be2179ec bdd192d5 3d99436c bddbafc5 be45a242 3c4cd91c be169a05 bd59135a 3bb52338 3d096b90 3df11fd1 bc934178 3da2be32 bde78abd b993ea26 be1d8244 bdae847f be0375b9 3d904faa 3ddba129 be1ce1a0 3d552c65 3cf70070 bca210ff be55e607 3e9613f9 3e302374 3d058012 3e0bd68e 3dd7cf5e 3ed14e64 3c5a0a31 3e14fdb1 3d0f1aed 3d62a628 3e30a646 be142f8a 3b891b46 bdb20a95 bdb4c87a 3e22c897 bd56613f 3ba2034d 3dc9c0eb bc56e19d bd8ce354 3d3ba601 3e34fd44 bd9b11b8 3d3fcf65 3ecf112d 3d96ef40 be147b68 3d9d1fc6 be8368b0 3dcd656a bc3e7942 bd95dcb9 3d2bf984 3c0d4296 ba92d720 bb4a9afe bc659985 bc19f323 3d82115e 3c1f0e84 bcde6d0d 3c356488 bc993b2e 3ce8ca4b 3dc5873d bcaec0b3 3d02cd43 3edae073 3d883b72 bd3242b7 3ce47605 bc730394 3dbb2860 3da0e1b4 be15d5cd 3c9c897f bd3fd2ce bc86dca6 bd07532c 3db5bd69 bd1fc0ef bdbc83d4 3b8301ae 3dfe4780 3d22b519 bd8d28e8 bd9d5517 3bcc02ef 3c4165b7 3c163423 bd8035ef 3dc68b7d 3d68dc04 3d281e41 3b7e1c41 bd448c2f 3d64c891 3d6d8294 3e2c5492 be307c4c 3db52e9f 3d3d48c5 3d22bcef 3d0a1e3f bd000507 bd5c9e40 3d3d1c55 be0c61ee bcf9323f 3aaf9a69 bca1230e 3d8890c1 3d32f735 3d9ff672 3d01ff34 3d39d799 bf034153 3dbd0317 3e4e47b9 beda8811 3d6ebc06 be7e2358 3b0f6b6c 3e65db9a 3e206daa 3dcb67b6 3e005221 bdbacf0a 3d11dfbd bdb54a1c bd4d52fc bdcffbc5 3dd89350 be176676 bdd67883 3aff2e52 bd18621a bdda4779 bd96a448 3c8bf08b be3850d3 3c5cd24e bdbfa4c1 bd07bbbe bdfe469f 3ddc52ac 3e7461e3 3e64f4af bea9c0c6 bdd07e00 bcf34d9b bd8030bb be759423 bb967821 3d5ef7c5 bc9bfb89 be18249e 3d072233 3d86dbf0 3de3ec63 3d58aa75 be5bddf3 bd5f7150 bcd92077 bdeebc7c 3e4284b0 3d2b7968 bdd2e5f9 3e07ac71 3dd29b61 3d1b528a 3d7e308b be6681e0 be2739df 3d0939be bd2d2b9b 3e4e6a1d 3d36f5e0 be4e2a86 3d3baf2b be2379ea bb81c492 bce82c24 bd1ed33e bd06609a bdaefc31 be73aacf 3d49e718 bdafc10a 3cea986c 3c9d58e8 bdb5b981 3d2c24ec 3dffc2f6 3ddf0e4b ba854e8a bd17585e bdeccce1 be4c256d 3cf9182b 3dbd0013 bdf32dbf 3e41d4ed 3c8fa370 3e735d16 bde17341 3dec17c6 3cc451aa bbd62ad7 3d818828 3e392617 3e3e4637 3dba7d32 bce0cf6c 3da3740f be1ce761 3dfd1db6 beb3c6cc bdf9db6c 3d839cf5 bdd97e2d be04fdd1 3d9f9744 3da499fd bd2a33a1 3b8d0c43 be165ada bd294699 3dbe62e3 bd9751d1 3e1d7432 3ce43843 bde2624b 3d3bcd1c 3e41a80c bcb5f4d0 3c8bf179 bd43c921 3de45421 3e221ab9 3eb766b7 bdbdd15d bd099798 3d9bf675 3c24212c bc7cd227 3c509e39 be75367d bd82da37 3ea279db bf062c31 bdf0a1c2 bdd39ee1 bd4745af 3e0e231b 3e0771fd bcdae4ab bdec0342 bd793484 bd81e99e bd3503ef bdac2898 3d8bbd0f bd508a19 be072585 3d6a2228 be14a824 3e9907d3 3e02feeb 3baacfae bd77b0ff 3c02943c 3e0ccbe8 3e25b655 bd0250e3 bd1fb998 39d34691 be41a0b0 3d85d021 be068623 bd7fe5f0 be13e10d be9b40d4 bdea5101 be31b235 bd87ae3a 3e534202 3ccd0318 b9cc9f88 be11ce2c be4a9d71 bcda746a 3ad23b13 3e3d5a2e 3d5f875d bcd61277 3c13fc85 bd905490 bda5bd18 3c55f1cc bdbc506b 3c4c4512 3d407ca5 3d8f294c 3d993bf1 bb5f179c 3daed8cf be188091 3db413fe 3bf9ecd3 3cb1bb00 3d4888f2 be16619a bd3fe6d5 3d558e87 bc9c74d0 3cada880 bdb2b036 bd0ed685 3d413469 bc7008fa bcf47d1c bdd75ffc 3d477aa2 bead89c3 bc988ad5 3e30f311 3e280032 bddcb402 3dace8d5 be097bbb 3d665029 3b955af1 3c56ca3b bc1bb4cf 3d028432 bc9b8651 3c00deba 3da1361d bca4e966 bd0e70c5 bc76b3c7 3e04f50d 3e372942 3da75fe1 bd46a493 3d973d37 3d1fef2e bd39bf25 39201106 3c442772 bb0aa61a 3d7cf736 bd869dbe bdd57a20 3bcd5ffc bd4d7513 bc08c0ba bd9d3d3a bd0e7b5f bdfc6157 be2da169 bdf8256e 3cba68a5 3d8f49c9 bbd98e7b bcab4cbd bddbe1c6 bdd80582 bf011adb 3c15c33f 3caa545f bdcfe2e4 3c432c5b bdddf18f bd290a6e bdcf7273 bdff5ede 3d91d855 3c121455 bc746dc1 bcab7815 bc07aa71 3b2b3730 3e00c7ad 3d0911a6 3d8c391d beb8ed4c 3d450ad1 bdcce707 3cffd1d6 3c6a7db8 be2e8804 be7b19bb bd3cf12e 3c3ef977 bd45a2b6 3d85b81e bd48aac2 be357319 3d5816dc 3e27af84 b999a456 be633001 3dab73ef 3be34c9d bd979293 bda1c0a9 bda8d329 bda3f7ea 3d30c516 bd1ce07f be2e149e bdab131c 3deef504 bce452c0 3f17db46 3dd9d424 3dba0b60 bbbedece be499245 3d910f16 3e3626e0 3d40f4a7 bda56c82 be292ac8 bd9d5ef7 3e44c234 bcb4c8fe 3cf04b9d 3d15004c bd3c0a89 3d1ff69c be968a32 be98224a 3d051cc0 bdef39ef bd6f158b 3d87765b bc90fbef 3d3c030b 3d21d275 be06a280 bd901524 bd5397cd 3e4df8b5 3d3d7c8c 3b8173dd 3e461116 3c2bc089 be3d51d2 3eebaa50 bda80081 3cb6ad81 bda150a7 3d60c48a bc29cb6e 3e142f3b 3e726172 3dd44861 beb70aa9 be3385f3 3cc14446 bc9cb78e bde99508 be47f336 3e0e088a 3d6d60dd 3ba6ee25 bc6cc3c4 3d3678e9 bdbdf191 3e321941 bd353631 3e8b4ff7 3d48fb0d be008c34 3d5c10cc bc384a72 3c86a3a4 bda3659e 3b6f3ee1 bddf1925 3d901174 bd20b311 3d467ac3 be06bb3d bd9b8630 3e63a0c5 3e5dcdee bd1d3a8f bdd39290 bdd78407 be30751e bcff494b 3d9b0ae0 3c97fd4f 3c4a5196 3e2cb4ce 3e005913 bd24c358 3d382f11 3dd9f620 3d3f7d98 3df661ea be348262 3e4cf5cb 3cdb064d bdacb770 3e25180c 3da74847 3ed28ff2 3d0733a0 3d3bf149 bdfff058 bcee753a 3db9c09e 3d31ad73 be1436c4 bd107dfa 3d1130c8 3d8b9b2a 3d10a9c9 3df032ee bdef7661 3c38c7d7 3cbe5937 bd11bbb8 be8d618f 3d6670a7 be584f2c bc41d16e bd584322 bde70e4a bc05627d 3d4f21e8 bd942a19 3d14f871 3e9bff65 3d53b879 bcd3e9af 3e3d321b be4924f7 3d119221 3d819af4 bc07dda6 3ee71a9c bd0a0e6b 3d0788d1 be252eaf bd1333cc 3c3dbe70 bd7b835a 3dc7a47c 3d5bfdbc bda9301b 390fade4 be20e5c3 3dc50ce2 3c12dd5d bde4bbff bcb68a78 be410e09 bdcbd7c0 be51d22d 3b2dc59f bc55d1b9 bc985342 3d8dbbc7 bc3d448c 3ba83271 bdd085c5 be5a7ae7 be4ee614 3dad39d9 bc45909c be27c4eb 3e1359bc 3b9f4e07 3c5db711 ba73a7d0 bd8737be bd28b7a6 be1f7729 bdc36604 bd72703e 3eb56060 bcabe43b bdcd2a4a bd60919b 3c970b9a bd9ca090 bc0741c6 3e068461 bd246428 3c3bd116 3e48e3a8 3dada030 3cb2388d bdfc70c4 bcce6831 be305bf7 be797379 3e18accb be09aad5 bddbf50e 3ea5c8c0 bd62dfae bd8bafe8 3df9ff0d bd18ae9b bd84b4ae 3db83ffb 3d7f5bd4 3e4ea677 bc9f88f4 be045600 3cc95eae bde5a854 3db94c1f bb95cc75 3e246364 bc7e1168 3d06856b bc9c88ec
body.stage1.5.4.weight 64 3e49d6b6 3e197302 3e9a2417 3e7a3ac6 3e7c752d 3ea09145 3e287a8f 3e33dc68 3e854548 3e9d1b06 3e852ee2 3e76a669 3e578c7b 3e3fba27 3e8f71cd 3e8baa24 3e5f58ca 3e8952c3 3eac5619 3e4a1c6a 3e84c1d2 3e900c18 3e642b99 3e7ad9d8 3e8233c5 3e4ecb82 3e90f665 3e1d1351 3e83981e 3e1f0a41 3e653a4e 3e1628f9 3e9fdf73 3e90d208 3e1ddafc 3e719329 3e8ad955 3eacdc2b 3e1faa26 3e99b56e 3e7e1f25 3e804102 3e4b2550 3e719ca7 3e8e391f 3e2a3c34 3eb9e485 3e8f1be7 3ea5a409 3e71b933 3dfb9ae4 3e830985 3e3cd249 3e889ac6 3e9ee397 3e442dda 3e5def0b 3ec09ceb 3ea4a06e 3e0ef11c 3e8201b8 3e1e3bde 3e741046 3e735056
body.stage1.5.4.bias 64 3e973c31 be18b70a 3ce0e6b3 bcabf137 3dc99770 be1200d9 3eaf045f 3e79de7c be64e52d be25f7fd 3ca81763 bdb82797 3c926d4b 3ebb9d93 be3a1b66 bd2f3066 3ea8159a 3e84a16f bb2b8b55 3e35382f be5d75ec be4c0a94 3e1a5b7d be5fec7b 3b928e43 3ec21fce bc7cc67e 3e54ff04 bc9697b4 3eb1339c 3e84d36d 3ecb597d 3d4279c7 3e281f91 3e6454e2 be8298f8 3e58afdd be1dfe62 3e87c8db 3cfad0f5 3db9acf3 3d95fb49 3e93179b bd8cb433 bdf54a1e 3d97fed0 bdd54706 3e2a0d47 3bc9e796 3e59ca96 3e0cab09 bb720e93 3ebb666c 3d0fe662 bd9e3207 3e6f2853 3e3a5b63 bd9f66eb 3d9f73b7 3ed2904f be0dbba3 3ee03474 bd86d97d 3e18af37
body.stage1.5.4.running_mean 64 be9d82c6 3da289d7 3c9bb48d 3e8d20c2 3d7e44e8 3e05cb09 3f1db9ae be53f3ea bd9b645a bebf5035 3e5f297c 3ee2adb6 3ef03f7c 3f1d2c74 bdb0a0a5 3f028efa 3d852002 3efb0145 3e251a88 3e58d150 be118e0c be505dee beddebf4 3ee40bda be2551ef bed85204 3de69cd4 3de4b4db 3f8266a9 bea20c47 bed6b90e bf06cf95 bd42738c beb7fdeb be20d912 3d8984e2 3e3a8b21 be847b96 bd1f22c4 3e8c6253 bf0576fa 3ea55afd 3ddae73a bddb822a bee3a0ac bdf7c677 be02c2dc 3e6db6fd bc3ddf2e be054390 bdf9493c be7213cc be92fe7b be04595c 3f1cfd57 3e876b5f bf143f1f 3d1f7bff bf03d6fa be8ec826 bea8f4de bd7413df 3ed30711 bdd23e1d
body.stage1.5.4.running_var 64 3d8f9a56 3cbb30b8 3da3ba09 3e1dcb62 3ddec472 3da763e4 3dd8601c 3d82d366 3d9b8be0 3dbbe022 3dc541f2 3da1daeb 3e5bc6ce 3dffb69c 3da358ef 3de9a5dc 3d884b45 3d9de0c1 3e164324 3d88a80e 3d6edd7b 3d56482b 3d9f4649 3db56bb8 3e01fc46 3d9c7679 3e1ecf63 3db60f83 3dfd8c4f 3d730968 3da8d202 3d9e9fb7 3e5b5ba7 3e19c54e 3d8a4cc4 3d52621d 3d9b95f4 3da42861 3d3cc0a0 3e643de3 3da54544 3dedc3f8 3d7771ac 3dd12e6e 3dc3338c 3d58b80d 3e3782d5 3db54454 3e50b244 3d95e08c 3d38f131 3d99f5ee 3dc668d3 3df7fb74 3da9fb66 3d3e05fc 3e23cfe9 3e180b60 3e269d8e 3d1e643f 3e28de72 3d904cde 3e1381d7 3deb632d
body.stage1.5.4.num_batches_tracked 1 48275300
